BD5D861D
BDC3DF67
3D2F6710
BE090E76
BC00E7FA
BE15989F
3DF57608
3E158EE6
BE232659
BDF79856
BCFAE903
BE351790
BDC8EAC1
3C28B3F4
BD175141
3BA36637
BBD86272
3DB43B3C
3C5D848D
3E7EBEF6
BCB4D28C
3E068621
3DBF6472
BE1D3580
BCCBB398
BE1A5858
3E0471A9
3DEE2262
3DF9F4A2
3D0B8AA0
BE0255B3
3D59FAF4
BD92A10B
3D025320
3DD8A65A
BDE43BA0
BDDA42E6
BD2F8356
BD07B98C
3D77DD4C
BDD2C616
BE05E353
BE077DA6
BE18171B
BD340396
3B5B26C0
BDCB6390
3AEB9280
3DFE8FD2
BCA3D498
3E249733
3D194AC0
3E0E8605
BE17BD36
BD3A14EC
3DCCC6F2
3DD33D52
3E06D035
BCAB7558
BDBD5420
3D0E6894
BCDBC3C0
BDED2BC6
BDE45F86
BD94077B
3DDF397A
BD7C1700
3E028391
BC006950
BCD564C0
BE0E5123
3D6B556C
BC3AB8E9
3E47F09D
3E7AA2D9
BD2CB433
BE130240
BDEE9106
BB7B5DCE
BB8474DC
BE4CB6F8
3C9EB8A8
3E4BA10C
3A0ED90C
3DC43D0B
3CD7EF15
3DA5B542
3E00B3E3
BD0E851B
3E949253
BC31BC7E
3E97D3E7
BDB8920A
BDED40A5
3E78E4D4
BE1F547B
3DF70612
3E14BFA3
3DE9C526
3E27C171
3DE790F2
3D6A8F8C
3E186C53
3DE64C56
3DFFB9B2
BDC97DE6
3CE14BD8
3D7335C0
BD091C2C
3E22481D
BDA9F40B
3D53C9D4
BD5B1A20
BCC51BC0
BDD72E26
3DE9A80A
BE0176F8
BD6029CC
3DF8ABFA
3DE18226
BBCC78A0
3D9742C6
BE19EA1B
3C65C480
BE21183E
3E02F03B
BDA9D1A0
3D4798D4
3E01F199
3E0DB7E5
3D7BFBAC
BC619A80
BD0ACFA0
3CF59BE8
BDD75F6B
BD4D2B0C
BD839BF6
3D77B98C
3D4D678C
3D33F600
3CC7ABE8
3D6F170C
3DF77FAA
BDA03376
3E183E7B
BDF6E426
BC311E00
3D4A0E20
BE2A8FDE
3E1AEB09
3E024E4D
3DA7C2CA
3DDA53EA
3DE3DE4A
BD294B20
3D5CC4B4
3DB7860A
BDB1F976
3DC1DC86
3E27449B
3E2A24E9
BE2014FE
BD343CEC
BDBC70E6
3DF0E76A
BDC2D5EB
BE0ED0E6
3DFD18F2
BCA1C780
3DD77E46
BD0B9F6C
BDBDD93B
3C6E89B0
3E0ED209
3B691E00
BD38BAB6
3E03E9C3
BCE3FF68
BDA4AE26
3D039334
3E2443F3
BD6E5BA0
BE083888
BE29F993
BCCA92A8
3C90D880
3E0B07FD
BD764AD6
BC1B7B30
BE025CAE
3D1E98C0
3DE3CAAA
BE236E9B
3DA160B1
BDAB19EC
BE1A621D
3E1277A0
3CA8920F
3E6748C7
BDF273FB
BDD09F02
BDEECF50
BE5D6C10
3D6708CA
BDEDF176
BD5BA3B1
3E1E0420
BE0A4A9B
3D830B13
BE4CC7E8
3DF1867C
BD39C8C5
3D992FAB
3DA95118
BD2947AC
BCB51C80
3DF5A81A
3DA8F44A
BD857766
3C7DF2D0
3C972FE8
BDFBC040
BDAC917B
BD50EA56
3CE5E500
BD014534
BC9C38C0
BDC12476
3E1AA0FB
3DA5E70A
BD44CA76
BC652AD0
3DB4AFA2
3E295449
BE19B1C3
3DBC7F16
3D6357A0
BE01AF58
3D489FEC
3E014E1B
3C0CFB7E
3E5C6E8A
3E8869D9
3EA9AE8A
BDF0758A
BD5BC86C
BDBECC65
3D649B4D
BBDC5884
BDF8EC26
3DCB8D95
BDBDB423
3EBAD3BE
3D8B59F0
BB26AD40
BE13331B
3E2CF4BB
3E683C3D
3DDBD8A5
3DDA0240
BB5169D1
BD163839
3D50A169
BE006A40
3C9ABE97
BDB79C6B
3EAE01AC
BDC6E082
3E16A9CE
BD56D5DE
3D1F6BBC
3E8064E8
BE6384D1
BE1555B8
3E3D4BBC
BDCE55EE
3E3FDBEF
3E198CB9
BDE156BD
BE19AE09
BDADFDB1
3E9D6E19
BE95509C
3E2F18C2
BDD6BD20
3D11BF17
BD87E79D
BE18947E
3D80B63A
BD47B640
BE13C490
BDF527D6
BDC88646
BDC989A0
3D9FBC60
3D886DF0
BC67EB50
BDB66F3B
3E1AA029
3D94DD20
BE109D30
BD05DC80
3DD94286
BE230B5B
3D6EDC74
3DB1CBF6
BD804376
BD8DF15B
3DA2574A
BD498BEC
BD39CA8C
3DB3F99A
BDDA4C70
3D8853B0
3E3A1BA1
BE2DE8A1
BD959F6B
BDB8AB2B
BD462988
BDCD6409
3ACEC74B
BE279433
3DFEA457
BDCF8B5B
3CE411D1
3E0E7606
BB7FE313
BE3A01B5
BE04593E
BD3DB05C
BDCDCADC
3C79B669
BC690DB7
BDAF52C1
BD95B6F4
3D2EDE00
BD17BD24
BDA16F4B
3E4709C9
BE22C11C
BCD4D25E
3D16EADF
BDC4DF1D
BD4D8F6B
BE22B6BD
BC5327D0
3DFE662A
BDE2B198
BE2556AA
BE0578EC
3DAC0A9E
3C84365E
BD42E32C
BC40848A
BD5EC9C7
3E3BCCDA
BE38E2CE
3C9221AD
BDE54B5E
3C00CB80
3DD8B505
3DFBCA1D
BE1A8108
3DB58FDB
3E327552
3D384AAD
3D9A7723
BE4A3709
BD77AAEB
3D9B8AD0
BDC14132
3D8EAADA
BE24B5BE
BE122D02
3C9A4894
BDA580E2
BDE2806A
BE563443
3DB3F276
BE310416
3E362A25
BDC6F91E
3D44E903
BC854B18
BCA49E27
3BD6A269
BE59F7FF
3CCA3D4B
BC32210F
BE1E9DF2
3D6DE24E
BDC1772E
3DF9652C
3E29E0F3
3DB31769
3E3FCD30
BCE9D35B
BD05A6C8
BDF8CCC4
3E20F1A3
3D9C9CB0
BD12F692
3D11DDBE
BD10B134
BBB5F18D
3CEDB437
BD957DBE
3CBF5298
BDBFBD54
3CCF5B77
BE06C2E2
388DF89E
BD7C4810
3DE8AFC2
BD9E4F26
BDE26DDF
3E18FF47
BDA0BC70
3E0F0783
3DDD029C
3E20983C
3DB388CC
3DF6A5AA
3C89DF40
BBDE81CC
BD2EE090
BD12C2E3
3E1A6C00
3D527D38
3D372260
BBBA4AAC
3D27850C
3DB9E35A
BD4B493F
BC90F898
3E241B0A
3CD016D8
3D06DFD9
BDDACA3E
BB2874C0
BC7DD0D2
3D44ACF4
BE1A74A8
BD82BEDE
BDC84146
BCF96DA8
BDAD6F3A
BD892BAB
BDFC8ADB
BCB263F4
BE21E24B
BBE52C0E
3C8A713C
3D1FC4C9
BD54362C
BDB72010
BBCF9060
BDA29E86
BD8337EB
3E1DF2FB
3E2A5C35
BE28AD76
BD9B0186
BD7A21F6
BE00D33E
BD37E02C
3E0BCF41
BDBB0080
BDD9C1D6
BD8FB036
BDFC767B
BD1AF154
3E07F023
3D1AFCC0
3D02CBB4
BD1D630C
3CF834E8
BD83B32B
3D88139A
BDA8CBC6
BD996D28
3D0DC31F
3D15CEA8
3DAD6C81
3D2B1BD1
3E19FFC3
3E4560C3
BCAE76EA
BD341DE2
BE21D30E
3D42534C
3E497E9B
BE52FEC9
BDEA5FCE
3E05AD20
3DBCC86A
3DF85732
BE310D52
BD59739E
BDD3E259
3E1EA2FA
3CE41EAB
BE1FD8C0
3E0654EB
3E0E77E5
BE23793B
BD47CFAC
BDE40286
BE10347E
3CD90DE8
3E0C942D
BC4CA2B0
3C47D6D0
3D7DA9C0
BD9DE14B
BD971E00
39FD0A00
3D8AEE7A
3CDD8018
3E1119A5
BD9D7780
3D965110
BE2872E3
BD9943B6
BD62BF00
3DBB2136
BD23C500
BDC9A586
3C945110
BE06DB3C
BE4AEB40
3D6F137D
3D315260
BE300D12
3E4D9D25
3D889684
BB99F174
3E0C8C33
BDBBF1BA
BDBE1105
BE2EDC4C
3D94A133
3D3D6804
BD721E00
BDA364C1
BDC3DF37
BD83B056
BDF06080
BD327100
3E4013CF
BD50946C
BD474AA0
3CE2FE58
3B4E5CC0
3D201FF4
3D7B98AC
BDF12656
BDCBA6BB
3DF61AE2
3C02AFB0
BDB236F6
3DA1F7C6
BE1337A0
3D93BD46
BD8C602B
BCCDAE68
BDACC496
3D819A0A
3D5377CC
BDCD64D0
3D56ECEC
3DD3256A
BD47FCF6
BCAFDDD8
3DD120D6
3E0547F9
3DB8075D
3DDD00DF
BDBDA7E0
BDD4E86F
3E0C89A4
BE2DEE29
3C0E536C
3DAE75E2
3CF18C94
3DF25D1A
3B1C0E26
3E1BA87A
3DEE6A1B
BB8B81F0
BD10CA08
BE312434
3E0B09D1
BD83005A
BDFCC10B
BDBA3BAD
BE194ABA
3DA2FBCA
BD484D24
BE2925C0
BDD4EFD0
BDDB9DB0
3E0368B3
BDAA4A60
3E04D949
3AFEBA80
3D87EE5A
3DD1C636
BDC02866
3DFCE282
3D30D7EC
BCD284C0
BDBB90E0
BD225294
3DC3764A
3E219C0B
3D7B39E0
BDE679BB
3C6FB100
BDFA4376
BDE9BE60
3D2EE920
BC6124D0
BE0B0CA0
3DC34F52
3D6E01EC
3E1BE23D
3D16F334
3C471DB0
BE2118DE
BDC75016
BDF82D00
BCD5D5A8
3DA354F0
3DF1C4DA
3CBFE858
BDEA6ED0
BE21B2F8
3DCB7E12
BD48B820
BE10EF3E
3DE9D212
3D6D0360
3E00E33B
BE1C9F3E
3E113CC9
BDB3F92B
BE19A1A3
BE0DF0AF
3E15AFDC
BDDFA5CA
3E995351
BD40C4A7
3E09226D
BE039489
BE05EDAC
BDABC743
3D247A14
3E1C4E71
3D7CE7E2
3DC7C74A
BDB54E90
3DAA1208
BDBFEA6B
3E7D46D2
BDD040A6
BD86846E
BE4D97D8
BE01B546
BE14E828
BDC32E1B
3D7730C0
3D8360DA
BE0A4D5E
BDCF91CB
BD8AC02B
3DF8AB2A
3DFE1342
BB8F88A0
3CAC5468
3B754EC0
BD3E71A0
BD94E686
BDE140BB
3DF1EEC2
3DE0C35A
3E1E4B83
BA4F2500
3D070F40
BE22CDDB
BC9953A8
BE267E3B
BDF74E9B
BDBC6800
3C2B8A00
BE1DD073
3DAAF246
3DF0BA4A
3CA95428
3DC2A346
3DE0BB3A
BE1DD60E
3E295323
3E15FA6D
3DFBC606
3E1BEEC1
BC599980
3C4D4AD0
BE07C030
BE101410
BDC50A90
BDCB4620
3D9EB556
3D5FF1F4
BCD81A00
BD96F24B
BDBB13BB
BD9D8010
3DC4274A
BDD21EC6
BD335B96
BE12DD2B
3E24BFE9
BD86C3BB
BDD797F0
3D987CE0
BE0EC723
3E16FAB1
BDE797AB
BD8B2346
3E0043EB
BD25AD54
3E0E077B
3DA32C06
BC627A50
BD7AF3D6
BDBD6A86
BE1ACA26
3DBC3892
3E08B501
3DA96ABA
3DE4346A
BD950000
BE18DA5E
BD9BB200
3DDBCD82
BD7FB5A0
BD013C20
3CC65818
3E10DFA5
BE236B6E
BD4D8A56
BE0501A8
BDAF16DB
3D2D59E0
BE02731B
3DD2B4F6
BB12E540
BE172A13
BDF7D0DB
3D8A0526
BDC306CB
3E00D7B9
BDA2E696
BD9686C6
BD0B72F4
3E0AB0F9
3D882CA6
3DB1A0AA
3CE2AFF8
BE2E82B9
BC9063E1
BC0AD243
BD581D17
3D41302B
3D2B2642
BBF4C2A5
BC612680
BDC040E9
3E5BF7F5
BC8B1B39
3DCB1642
3D7C7DEC
3E09149D
3DAFB636
BE0FEB06
BD95D631
3E0A784A
3E05CF31
3E1FA777
3D9B128C
3D4E65C0
3DAC1CBA
3D7E1CA0
3E14BEB1
3CD9F518
BD9732B6
BE1EE8A6
BE08C976
BBA09100
3AD0C580
3C4F7F50
BB1AC4C0
BD4FCA40
3D4C8A20
3C99DBC0
3A16D500
BD631996
3DCC004A
BE1AA90B
3D062C2C
BD330356
BD827A1B
BDA5ACF6
BE249330
3CE4F6A8
BCC3E8AE
3D019305
3E7B985C
3D2F7B44
3D9C8DA5
3C90AF28
BEA31727
3E9D4738
BE418ECA
BD70DF40
3E92C6CC
BE64B86A
3EDF9165
BD9D1D40
3C49B4D0
3D71F600
BD420AF0
3E9B94CD
BE0C637F
3E2D0FF0
BDCA9382
BE14900B
3DAF9F7F
3DB4D882
3DAC6C2C
BD67C6AC
3BE685CD
BDDBA61A
3CAFF1A1
3E09ACFB
3D8CE348
BDCF64DA
BE38E658
3D14FE8C
3D5DD4F3
BD534107
3DC7E3A1
BC342850
BDF03956
BE01B4A6
3DA42E72
3E6117EA
BD5B1E4D
3DAA374B
BDF2F14C
BE217F23
3E44170B
3D280E54
BCAEA8E8
BDFF0250
3DFD2006
3CA241D8
3D44E2D4
3BFCDA60
BBD5FF60
BDC5E4E6
3E221653
3E07C209
3D876430
BC8AF2D8
3E048789
3D9D2C00
3BF0C8A0
BD4CFD00
BDF7DA2B
3E13EF23
3CF42DD8
BC239BD0
BE165FF8
BDB64D8B
BDECCBD0
BE07EC56
3E0E2E8F
BC8BDF61
3E2C72BB
BDD0FAFF
BD9B65B9
BE166D1B
BCCC5FE8
3CCD4FFD
BCC291E1
BDF7A656
3AA21A0D
3D88B11E
3D8A1AE4
BDFA211C
3E0BB936
BE2D0846
BBEAA128
3CBD07AA
BB198B1E
3E21F838
3DE5F333
3D0F2669
3D2389E7
BE0A3F63
3D985DE4
BC7E2505
3CA9F183
BE1E9EE7
3DBFCBCC
BE357219
BE16BE67
3E10CF7F
BE0F8A1F
BE04B923
3DA839C8
BCC4DF32
3CA14C97
BDE66C8D
3E019084
BC57917A
BE3A19B0
3CE3039D
BE7F76C9
BAD6272F
BE5BC5B2
BE2A7FBF
3DAF7818
3DB9DD9A
3E327A78
3D20418F
3B2C30B0
3DCE5A0D
3D03C182
3C6A5A60
3E257A6B
BD1480A5
BE051F29
3DBAEE3A
BE1D2395
3D303678
3E1352C2
3DBA8944
BDD31AC7
BE354645
BD992EA7
3DD64D00
3DC876CA
BDDA6138
3C0A48B7
BD4E583D
BD213500
3E0062F5
3E01E432
3D9B8524
3DE2E7DC
3DBC6E70
BDD1782A
BCF1F9B9
BD90A2B7
BD88D96C
BE015E4B
BE0DB4F6
BD1E949A
3CFC9DB7
3D5AB1B9
3DF25B66
3CA86BAC
3D9CB380
3D00B611
BC676EF3
BDF65156
3E07DEF5
3D906E63
3D7C1019
BE4564B6
3DED94FA
3DED0A6D
BB01BA06
3DE7DE7A
BE380B8F
BDDA44CF
BE0B74F7
BD9F8DFA
3D54F2CB
3E2ECB96
3E103ECD
3D9489F7
3D2C7E70
3E16EBE7
BD428DFA
BDB6D796
BD0C38BC
BDC67D9A
3DF81CB9
3DE4E5AE
BD650180
3DD3794E
3DD67CF6
3D868E90
BE013648
3D3AF3E0
BE1F5E1F
BDB559B0
3DC3C256
BD9B3CEB
BDADB5DF
3DD8C2C6
BD984B50
3DB29B09
BC8F7140
3DFE14A4
BE05962F
3DC689FA
3DD89CBA
3DDBC3FA
BDAEB630
BE28BC33
3D6CD900
BD854ABB
3C02CD13
3BB56682
BD194A62
BE1F085E
BD924A56
BDE0271B
BD5395C0
3DD1FF52
3D3B2F2C
3E22AC13
3C422080
BDA54266
BD5E2FF6
BD82A590
BE1DE908
3DD35AE2
3D54320C
3E29A835
BC4D4DD0
BE19C516
3B232200
3DBFD396
3E0C1A1D
3DD5A466
3E040349
3CDD7200
BDA7757B
BCCCCED8
3E2A5A8D
3D55F8F3
BE741B1C
3E840166
BCF4976F
3D353504
BDE31FF8
BB2C03AC
3E34EBA2
BDE7D9A0
3D4F548C
3E6B067F
BD7E9705
BDDA0EBC
BDBD8C2A
BE100E43
BC1F6B50
BE90FE39
3E4E7B63
BE133F42
3E881959
3D2A9F0C
3DA87B47
BE48C429
3DC5D6BA
BDB26E20
BCDFC1D8
BD99E376
BD16DEEC
3D754A6C
3CFB1F58
BDD88736
BC0A04B0
3E0EAA99
3E0E4565
3D8B0206
BE1BDFDE
3E161E0D
BD91C00B
BE219E73
3D7E0434
BE1C7C18
3DE9F7C2
3E015D59
BD8032DB
BD367BF6
BD8C920B
3D76B814
BE0B6246
BCF925C3
BE0C4632
BE165AE1
BE22D5DD
BCA1A2B6
BD9F00DD
3E3B55F4
BE08FE6C
3DE37444
BE1789F3
BDD1C73D
3E30CAB0
3DDCAEB6
3BF1C413
BE359CCC
BE0A043B
BDE14B27
BD8FBBA5
3E2B6B5C
3D69F148
3E0C4594
BD0C3758
BE279FFE
3CF77298
3D35BF00
3D7CFBD4
BDD35510
3DDCF252
3D9D9ED6
3D9B3A3A
BD454D16
3DE6E042
3CA73768
3DF5BDCA
3BB037A0
BE078256
3E18C783
3E14AF8D
BCA7AF58
BD941680
3C4F32B0
3E16E43D
BCE8D200
BE03B3D8
BCD99AD8
BD102C8C
BD93F15B
BDC3ED50
3E0EF9CE
BE3453DF
3E40B4A2
BE0F88E2
BDC00B9C
BDE75A4A
3E475DB5
3E1C3287
BD515046
3E126023
3E0A3741
BDAE2424
BE1C6B28
3E223A62
BE09B8DB
3E0985F2
BD409A3E
3E5628A0
BDE0D07F
3CB14710
BDF65216
3A2A2509
3E52B727
3CCB23C0
3D028A4C
3D89E336
3B52D600
BDF3BB9B
3E118D0B
BE2008E8
3D728C74
BE296DE8
3DE3FC16
BD2FDAB6
BE2657F3
BE298600
BD6AD4B6
BD0DC3C0
3D1968E0
3DD7B9A6
3DAD934A
BDB30026
3D4BB2CC
3E1824F1
3DB706AA
BDBF66D6
BDB0C51B
3B9CE1A0
3D0D2D4C
3D0D7BB4
3E0EF9AD
BE1BF3CE
3D7D1714
BDFF94DB
3E283A99
3D912586
BC8D04A8
BDE848FB
BE0C7F60
3E2748AB
3DA1BD7A
3E070CB3
BD5CDC16
3A2DF300
3DF0D9C6
3D10AA0C
3CFACBC0
BCA31B00
3D9BF920
3CD3B100
3DA178E6
BDD57AE6
3C25128D
BE0C1DD2
3E1677D3
BA01FA14
BDAA0F1C
3B6E8C91
BD234E04
BC8CC184
3C50511A
3DC4E652
3E29DA51
3CD12DB9
BE5CABB2
3DB77FA9
BDCAFDCA
BE0F43F6
3D5E6C0D
3E49E105
BD60B14C
3D59B863
3DC5CC87
BE189336
3E7C4F60
BE1F9CB6
BD398716
BD00764C
BE29AD60
BD9BAAFB
3E19D455
3CC47898
3DA3FC70
3CC9FFA8
BC445A50
3DBABA72
BCB8F340
BD227B4C
BCF01818
BB05A4C0
3CD36ED8
3DFD7D72
BE1FC54B
BD5D5E76
BE072F53
3E172035
BE0CAD40
BD210100
3E2876BD
BE16864E
BE08355B
BD5A4360
3E1A7923
BDC2275B
3E1DBFFB
BE162603
BC8B3580
3D855B06
3E2463E3
BE2A9E03
3E28644D
3E125B51
3A88E280
BC46DF00
BD25800C
3E05D0C1
BDE993F0
3D5823C0
BD9DF99B
BD135E80
BE147830
3D71848C
BDA11226
BDED2D5B
3B8F4660
BD3723B6
BD311FF6
BDFE2DD0
BC889BD8
3E0E5179
3C8B9F28
BB5332C0
3DFD4F92
3D272814
BD10C820
BC514C00
3DE93272
BD5E5656
BE093F58
BDDC5086
BD73C716
3E08B183
BD76222C
BDE8D2D6
3E07B73D
3E03EAA9
3E00593D
BD419C96
3DBC8E0A
BC1F4080
BDA708B0
BE00CD56
3D729654
3CDDAED8
3D6234B4
3D3B954C
3E0DBCAB
BE099008
3D013340
3E19D049
3C8442D8
3D8F2830
BD914710
BD91FEEB
BDF5596B
3D5C24B4
3DA56620
3DCAF01A
3D2A8CCC
BDBCAED0
BD08A8EC
3DC84CDA
3D0CAFF3
BDB59950
BD14CFFB
BE206A77
3DC2A90A
3DA92B21
3E9FA160
BE1DD03D
BC58E160
3DEE9CEA
BE0FFF63
3D28283B
BE6A47E5
3CC6839B
3D97D94A
3D965B2C
3C02CBD1
BD801866
3E0D169F
3DDC7B7B
3E979B57
3E6D89A1
BE01F1BF
BCD57B28
BE269D16
3D979956
BDBC66AB
BCB2FBC0
3E1AFF41
BE2456B8
3D708F00
3DACB9F2
BDAE77D6
3DA04726
3E20609B
3E03909B
BE0F63B8
3E14990D
3DDA1266
3DE9BF4A
BE12461B
BC982158
3D4F6D80
3D8AAD10
3E0ECFD1
3D838D9A
3DB12BBA
3D0B63A0
3D97ECC5
3C145542
3E9C5DB1
BC9EFBAB
BE53EC62
BCBD5D28
BDB417EE
3EDEA7D4
BEB0FC39
3DB6A06A
3ED9CD81
BEAE42D6
3EA1D4C7
3E1B9F69
BD89E8F6
BE1F6A58
BDEC0D75
3E25DF9F
BE8945B7
3E91391F
BE37131E
BE9D588D
BCC55924
BDB32AE6
3E2CEBDA
3E2753E1
3E1181BD
3E22D7EC
BE02460E
3D0E284E
3D149D26
3DEEA7DD
BE4B343F
3DD094CA
BD8ECD3E
BE64903D
BE48D4B7
3E24571B
BD842E96
BC1FEC3E
3DDD94C9
3E62FE06
3D6CC32F
3E3C2D70
BD2709B1
BD130DF7
3EAAD02D
BD467BD6
BE283CD3
3DAB709A
BD792196
3DC724F2
3E0774CB
BE0503C0
BE21D753
BB7FBA00
3DFB8D3A
BE1B5966
3CED3398
BDDD5F80
BE0BCA56
BAF92E80
BDFCD87B
BBC790A0
3DFF2DC2
3D86A58A
BE07AE16
BCFB8318
BD8155C0
BDEDE5BB
3E1E2A4B
3DA2D280
BC0A846C
BC274F1C
BE05FCA9
BDE7B7D7
BDC7D142
3D8264AB
BD1A885C
3DD40F37
BD72DBF6
BDC8DB60
3E250C09
3D70BDAE
BD6F6DF5
BD53020A
3D8ED1C8
3D28A026
3D55237A
3DFB2AD7
BE379EBF
3E173E1B
BDF34571
3DF262BC
BCB80224
3D68F1EC
3E1F61F9
3C173D56
BD74196A
3CDB5DA7
BD85BE24
3DFEE346
3E3E7299
3DBA3920
BDE097ED
3E1B1021
3DE96CE7
BE011AD3
BE30BA0E
BE14F560
BDECDC48
BDDE30FC
BD42AF7A
3E06851B
BDCA2096
3E709389
BDE281E6
3DE01EB7
3DD5D9B6
BD8CE5BB
BD8FBBC5
3D85FBD4
BCC75C2F
BDD04F60
BDEAFDF0
BD8220A4
3DCED1C2
3D941BAC
3DFF8EE5
3AB9AD80
3DDCB867
3DFE221B
BC7DB179
3DA2203B
BD7115F2
BE351B90
3D3F33BC
BC8B0474
3E1C2F9B
BE0DF9AC
3DD6FFA8
BDB49FF8
BD3A010E
BD39EDA0
3DC559FE
3D91DB15
3E01C29F
3D057468
BDF5D7AC
BDFC495C
BE28ED4A
3E1DFE12
BDEBD6AD
3BF72460
3D410EDD
3C746E75
3E084966
3D9C02E9
BDAC93D5
BE1AC756
3C828347
3E497ED6
BE2A757F
3E676793
BE0B84A0
BE21C8E0
3DB07CAF
BD9D9F06
3D4B1659
3DCA844C
3DCD673C
3D17AD93
BDC02EDB
3BF0A856
3DACF919
3E52AEB6
BAF49247
BDC87820
3DC59AEA
BD840403
BC7D735B
BDA582E6
BE108316
BE42F906
BDB9DB5A
3DC59C10
BD90EFB3
3E4C683A
3DFE3FF7
3D8E5C56
3CC1D0AD
BDD7BFD6
BD1F3654
3DC9712A
3E25930A
3DF5A9E3
3D7A3574
BDE092AC
BE24B6FA
BD560BA0
3CBA77A2
3DECD4F6
BBBEEE8D
3DCC1A66
BE2044A3
BE202865
BDEE3A68
3CB6EA98
3E067CE9
3E30E25D
3E0171D7
BDE620B2
3DF2A10A
BDEECBEF
3DF2BB3A
3BC475A0
BB750AC0
BDAF0EC0
BDA9FF76
3D431940
BD5E7256
BB2070C0
3E2A7EF1
BD3ACB80
BC326D00
BE0D460E
BE1BDABE
BCB14EA8
3CA226A8
BE077F1B
BBB8F360
BDDE8A66
3D91CB06
3E1EB3BD
BE2419F3
3D2B2A80
BBA44300
3DCB4E02
3BDBE600
BD706FEC
3D989108
3D052657
3DD4E23C
BCAFCE15
BDE9EBFC
BE17434E
3C884AE6
BDA29D59
3E92359F
BE0E5478
BD921B84
3E5E4786
BDBB63F8
3DF3A180
3D8682EF
3D843106
BC726221
3CCC3E32
3E3DB981
BE31E629
BD67E57B
3DF99918
BE3176D4
BD7E6220
BE237C86
BE071923
BDFFF506
BCEC0A68
BCBA03A8
3DEA1C7A
3DC5471A
BE0AEAF3
3E114F55
3D832666
3D181DC0
3E13D8D9
B9376000
BD5ACF36
BDF3F4A0
3D44BCD4
3C171700
3E0CD179
3D83D46A
BB5CD800
BE28A7DE
BDBF8400
3DB14A8A
BD738E96
3E10373B
BD633254
BE18E4B5
BC065E0B
3D870167
BD9F7870
3D5EF57B
BDB3C34F
3C29F78F
3E2A2AE9
BDE498FF
3DD45155
BE47BD54
BD49BD9D
BD04E406
BD456E0F
BDD4B5B3
3E209900
BB46D6BE
3E2B77B5
3C943540
3E2965A5
BD831AB1
3DC2F34A
BD03DAC0
3D95BC30
BD944AE6
3D312220
3DCD3156
3E06294B
BC0E5530
BE1C3006
3D26DF4C
BCC1AC58
BC8F13E8
3DAD323A
BDF37A60
BC3366B0
BD185080
3E16310B
BD8811BB
BE189633
3D822BAA
BC69B850
BE247C83
3DB15D12
3D50F06C
3E0404F5
BE1ABD3E
BD6686C5
BDE650CA
BE2BBA22
3CC85CDF
BE2DD17D
3E30A47B
3DAA27E1
BD54FC42
BDB25130
3DF81C82
3E399B84
BE27E711
3CD69D7A
3C998805
BDCC9537
3E09DED0
3E04F221
BD3DAAEA
BD3BAB32
3BE0E053
3D8DCBB6
3E088DA8
BE2464C8
3D4F49E0
3E0D156D
3E10BA65
BDB564C6
BDF34C36
3DC834A6
BE018B76
3D90C396
BE0A8CD0
3E27C00D
3DA729B0
BDA73ED6
3D853EAA
BE0D8006
BCC5D368
BB927100
3E07105B
BD5BC980
BC399F80
BE281B7E
BD981E86
BE0DAD9B
3D7BE500
BD08CCF4
3D173CE0
BDBA8A00
BDB84960
3DA44716
BE198A7E
BDB914BB
3D0A8E40
BD9017E0
BE1FA953
3AF58680
BDC91AAB
3DFF0822
3E10705B
3DBD4C9A
BD47B776
BE0029E8
3DAE9ECA
BE078AE0
3DD330E2
BD2E1A60
3DB8A672
3DF39AB2
BDD4B300
3E280F21
BE158B62
3E119A9B
BD96C738
3CE5C7DB
BD65589B
BDBDDD94
3D9D17E1
BD625DD0
3E095F84
3DC24F9A
BD646C0E
BDF7FDD5
3E890EF1
3E1ADDB2
3DB32592
3D9FC121
3E39D752
BCF1710B
3D96B466
BE642AC2
BDC43594
BDF0DFBB
BD5A1FFB
BCD4A5A8
3D20E180
BE0EE400
3DFBFAAA
BD7EDE36
3E27D2DB
BDA3F846
BD5BDA56
3E062A93
3D40B30C
BE299356
3E1049E5
3DF6487A
BDC4CB0B
BCF6F040
BDE54530
BE0C327B
3DE333F2
BE1CBF36
BDDEC1DB
3DFA5CF6
BDE21810
BDAE3320
3E109C15
BDFB92C0
3E202101
3D84FF56
BD8826E6
BE0FF958
39927A00
BE04F523
BDBE323B
3DA07850
BDCF8426
3DDCFF86
3E29A4A3
3E192A81
BB6A4200
BD6BE6C0
3DE0043A
3DD8CDDA
3E1441D1
3E133E7B
3CA1A140
3DC18C42
3D401B74
BC71C900
BC553950
3DDD7D02
BD51F820
BD65DDCC
BE0C357B
3E10DECD
3CEACDD8
BD2DE736
3CEC15C0
3C7EC400
BD68DFAC
BD30F540
3E03DAF3
3DA171B6
BE0C695E
BDC87CF0
BE2A35F0
BDDB1046
BD6815C0
3E180331
BBFEBBA0
3DD9753A
BE0D4E1E
BC81C600
BD2E6A4C
3E063E5D
3B52F2C0
3DDB415A
BDF53D76
BE162B20
3CE11E58
3E20A0CB
3DD792E6
BDE31F9B
3C936E68
3DF59586
3D648F74
3E07167B
BDF3A33B
3E28D5CD
BC6E5930
BE062EB3
BE15DE2E
BDE18686
BD8E2A76
BD2A5CE0
3E24EEE3
BE018A73
BDAFD520
BDC605AB
BE4665E8
3DC3FD24
3DC19B88
BD098EC0
BE173A96
3E1B4A18
3CE0E633
3D1886CF
3C94B66D
BE0DAB28
BDFBD8D1
3CA9D988
BE1AA2BB
BD952EC3
3E0A4FB5
3D22A9E0
3C735410
BC0AFBD8
BDE51396
BDE5B1AE
BD4FC041
BCFD6985
BE116F91
BDC7F630
BE1504DE
3DD0CD4A
3D8D1EE6
BD08DE0C
3E0F2E35
3DDCD322
3D5689F4
3C078350
3DFC586A
3E0E5103
3CC35328
BCFE2BC0
BE15ED86
3C822258
3E0A636B
BDE51430
BD4C1E20
3CFEEFD8
BDD9AB4B
3D0F42C0
3CC142A8
3DED10A6
3D18C620
3DC9C27A
BE6AEFEA
3E390F94
3DB58AD0
3DE71C96
BE408F7A
BD47B5A0
BE774104
3DC78793
3BF1254B
BD544960
3E5901C5
BE003B1A
3E51B6B6
3C857258
3D001500
BE2778A0
3DDF8946
3DA4C04E
BAD5FC7D
BCE33FB2
BEAC25C0
BE815A05
3DF9FC22
BDE129AB
BD80BBAD
3E07D80C
BB1B7451
3C5AF109
BC749326
BE1A252F
3D5E29D6
3E1E7CC5
BE0350E4
BCC15D28
3E388CD8
3D86B948
3DD5E593
3E218F09
BD36DFA0
BD09BC3D
3DEC0362
3E3BFEC4
BDAACD72
3E0248DD
BD61A5C4
3D641883
3E667835
3D81F2B0
BD508C56
BDD83F7B
3CF80A80
3E121BBD
BDCF5A8B
3DAE426A
BDBD3500
3D9EBA86
3D5E7BE0
3D510654
3E015F8D
BD335520
3DEB4BF6
BD5B8DE0
B8ACE800
BE0A7143
BE101C76
3DE429E2
BE11228E
3E24963B
BE25A393
BD9F7A50
3C906040
3DEE0E3A
BD8D379A
3E38F1A4
BC3C5903
BD0330ED
3D1A35B9
3D6899DB
BDFC03C4
BCAFB042
3E24D968
3D70ECE0
3C33B327
3DD53980
3CE17011
BCCD9C5F
BDF7D078
3D80BDFF
BD5BFA2F
BD38EAD5
3E094AEE
3DCDB971
BDC51E4F
3DB9BFBB
3E271C19
BDB74F30
3DF08770
3CBAD85D
3E12CFD3
BE1A8E4F
BD4FD1B6
3E04B42D
BE144E6D
BD3ADC78
BE7FC2F7
3DF3BB2A
3E51C897
BE2A6D4A
3DDAAD06
3D0C3EA0
3D147F4E
3A91BF33
BE4F5888
3DFD4036
BE855A9D
3E4E43E7
BDB85BDB
3C08C97E
3E656D33
BD0875CC
3DBE6B7A
3DBED5F4
3D91C2E6
3E0F9728
3E1F999D
3CC58B1A
BE44B2C4
BC5853CB
BCF97B63
BDC9C516
3E3D5C4E
BDBF0AFF
BC851BD5
3D447D13
BE2637CE
BE3289FD
3E0DD8EC
BD19DD07
3E3BEC1B
3DEEB220
3C27CD9C
BA0439DB
BD09FBE0
BE158F26
BE143912
BDC1B71D
3D6F71D7
BE0294C7
3C5FE0C3
BDB866EC
BDAE1705
BD172636
BDD720D5
3E1DFC29
BD1F3521
BE4D44A9
BDFCE102
3D96A707
BCECD1E5
3DFDD616
BDC1F6A0
3E6D249F
BDD14EEC
3DB2DE6F
BDE4EDF9
BDFF5643
3DDA4F51
BD74C656
BDB83800
3D95D531
BDBB4517
3E035E4A
3D8F851C
3DF35C13
3CBC078C
3C581DAA
3CD68B9B
BE024810
BC6FB030
3BD32CBD
3E2172DF
BE05CD1F
3D4EF8B8
BBB8045D
BDBFCAFE
3E1ADE0F
3DF9CA1E
3DCB3362
3DB43644
3E1DF053
3DBB8BEE
BE1E6F8E
BC4D0330
BDD8B51C
3C591C50
3D980792
3E0E8EF3
3CB53970
BE170294
BA25C500
3D8B6EE1
3A9C7180
3D53D710
BDE4F4FC
BCF10880
BE2734DE
BE0E465C
BDBB3200
3C202CA6
3E071B29
BCB35D6D
BD6D5403
BE0DF526
BD88954E
BD9C8690
BD3C2536
BD2025EC
BD897DD0
3DA55B06
3E1A5035
3B7BB740
3D0175EC
BDBE7DF0
3AFF7680
3CC80B58
3DC87512
BD1DB3B4
3DC9772A
BDF20220
3E0D5235
BD8761A6
BDE2960B
3D10C2B4
BE251EC6
BDDCEC46
3D4ECD0C
3E27F01D
3E267535
3DDCDA22
BDBBAB90
BD8472A8
3E2C9F39
3DA1EC23
3C0BA8B6
BDBE1F07
3D95FD3F
BDD6CFA8
BE889796
3E44B41E
BE1A242B
BE4B853F
BDC14AC5
BEBAD2C7
BE2C795E
3E0BF77A
3C175C30
3E014967
BE1E5DD2
3C8D014C
BE70D2D0
3DC441FF
BDD88120
3E33AADD
3CED1FC0
BE183F70
3D3DFF80
BDBD0D7B
3D994CDA
3E1E9FA1
BD0865EC
BDD24C90
3E261231
3D678A2C
3D8F28F0
BD0EE194
BE0518E6
BDAF79AB
BE11E6EE
BD9D5816
BCF1EC18
3DE42F4A
3D5735AC
BDE33380
3D0DF0CC
3DEF0622
BE0C266B
3D6BB2D4
3D94269A
3DB8958E
BD6B1FBA
BE1917A5
BE20CC94
BD6C5B44
BE1EF08B
3D4A17EF
3C9C9557
BBCAD2DD
3E187303
BD930EDD
3DB9DF58
BCEDF0F5
3D7FCE08
3BB584B2
3D9A71AF
3D78A3F8
3DF6B059
3D25EAFC
3D94D432
3D950D8F
3DD797CD
3CCC47FC
BD0F6620
3DDD06B2
3DCB05C6
3D3E9A34
3BDC4AA0
BDE45170
3E249651
3C9FBB98
BE0A14F3
3E2745B1
BD1B1B0C
BC7F5F30
BAEF4400
3CEB8080
BDF976A0
BE2A894E
3DDD68EA
3E0A2E13
3D4C7D8C
3C28D3B0
BE1C7EA8
3D38FDA0
3D82B740
3CE09340
BE173183
3DB9EA3A
3DE61F50
3DF46FDF
3D670401
BCD48502
3D242358
3DDA3B7B
3D101FAF
BD539FB1
3E1E18DD
BE32C12A
BDF7D26B
3E3492BF
BE2FE978
BD8390AC
BE249373
3CDDFAF4
3E288285
BDD827EF
3D08879A
BD8D3706
3E0B093A
3D1ED5F2
3DCD3042
3DA0AA3A
3E0BCF9B
3DEBF93A
3DEDB1FA
BD832C10
BE08DC48
3CA18258
3DE03F22
BDCFCA26
3D9F0666
3DA51146
BE080FBE
BC6CC8B0
BD4B88CC
3DF37F5A
BCCBDA00
BDA8BD7B
BD5085EC
3E27F819
3E1FB22B
3D91FFDA
BDD8E8B6
BD9C2016
3DD6DA46
BE12ADAB
3E0C8C53
BDE5BF40
3E2651BB
3D6CA760
BE03A5A0
BE114E8E
3D9F9A20
BDC3D490
BCCC2EE8
BE085A80
3D870A36
BCCF1798
3DCBAA76
BB101940
BD8323F6
3D75E160
BD7CC3AC
3C2436D0
BDBF46E0
3DB68CD2
BD962C3B
3C4FB100
3DDB17D6
BCBCD06C
BE0C5DA5
BE8C4EA7
3D4F94D5
3D63F4C8
BC5CEB7D
3C83925B
3D5FC94D
3D0F0D26
BD8B8A3B
BD9DC689
3C7871A3
3C8E98C7
3D9A240E
3D9A7D31
BE101176
3DE51809
3C157053
BD1D2B28
3DBF03FA
3D2296C9
BE213CB0
BC6E1A8B
3D1AA56C
3C7CD930
3C616350
BD431080
BD7D63C0
BD7143A0
3E1C2DB3
3E154F0B
BCE00CD8
3DBC0346
BDE0304B
BD422DC0
3CC20C00
BE0600D6
BC3F11B0
BDF87096
BE09D696
3E1D16B1
BD7D9700
3D820F66
BE19F0B0
3D569960
BD412EB6
3DABCD86
BE0A5FA6
BDFB1FC6
3D3833B4
3DAA19EA
BDECC20B
BBA80800
BD2D7DCC
BD6A00D6
BCBEFB40
3DF27542
3DD13E16
3D8E4170
3CF80F80
BDF77F4B
BE1E6CA6
BE04DE43
3D9FB156
BDAFA87B
BD8CA2F0
3BCD8B60
3E101119
BD9ED3FB
BDAE4C90
3D92065A
BE1E542B
3C5ECE80
3D50F4D4
BDD17A30
BD592300
3D84A2B6
BE00EE96
BDCBE13B
3DDD09F2
BDC6A5E6
BE0956DE
3BD90200
BDDC9A5B
BD79F896
3D983AE0
BC864DD8
3DD1F86A
BD8E8A50
3DA3C9EA
BC6095B0
3D80265A
BCFE7328
3DCEEE4A
3DC0D742
3CE9BD00
3CBCEA98
3DCFF5D2
3E2399AB
3E283249
BE25616E
BE0A9C88
BDD61F96
3DDBFCA6
3DF1185A
3DABE0D2
3DCB0EDA
BE03250E
BDE4A140
3DADE702
3D47B02C
3E07655B
3D84EBD0
3DD9A172
3DC67C26
BD82E3A6
3D9FB870
BDFB237B
3BD77800
3DAF22F6
3CE9B69A
3BE076CE
BDFE18AC
BDD766A5
3E15516C
BDFF92CD
3CAEB636
3D9C3394
3D52EFBB
3DD41D82
BD055BEE
3E8091CE
BE0555DD
BCAD04A3
BE1D937C
BCEB424D
BDC13DDB
BC80DC17
3D2A4BF4
BE1B35B8
3CA57726
3D95745F
BB89CFB2
BE010EF6
3DA8645A
3DF585D2
BE1AF2CE
3D9ADEEA
BD30D380
3D8BEA00
3C6A4F80
BC9A4280
BDB7A9C6
3DF1810A
BD8D3166
BE03D29B
3DC79422
3C637E80
3D17A74C
3E0BA699
3E0BB0F9
BD788CF6
BAC9C680
3DACADE2
3DE3AF3A
3DE7EEE2
BD719660
3C445DD0
BE044B4A
3D2671F5
BB45306C
3CE8B7E7
BE278120
BE431BF6
3DDE9230
3CB056A1
3DFA6D5F
BDFE3DEB
3D299753
3E01CF80
BE82666D
BDA2DEBB
3C5C0F00
3CF9F21B
BD945513
BDEEF168
BD9B638F
BDB6B54F
BE2B0725
BE25EA5E
3C8FF6CD
3D9AF00A
BDD6E9E1
3E2E4728
BD2FDEAD
BCD8C291
3BD2CD2B
BDE3C90A
BDF2CF28
3DB8DA9F
BD1ECE28
BD78C82C
BD640715
BE0349E3
3D292C7A
3DCD5E3A
BDD405E6
BC077BA6
3B068DE1
3E15AF7D
BC68F7B6
BB62DF46
3D5B5D15
BE41C9D1
3D8F001A
BE0F8688
3DD6B10A
3E1E759B
3E21140D
3D63DD8C
BDC48706
BE131FF0
BC525DB0
3C217430
BDF68150
3E0F5C71
BE05B18E
BDB18E50
3D96FF96
3DCA5A26
3DE0F126
3D8D7AAA
3DC7782A
3DEFE956
BD3740CC
BDF5F490
3DBF0572
3CC8D2A8
BE04546B
3E15576B
3E0C411F
BDD85EF5
BCCFDC70
3E0C0413
BE022EF7
BDBAE82E
3DD252DA
3DFB41C7
3D40C9A8
BE1D1790
BDB3FC8F
BB2E5D9F
BE392BC3
BE29FCAD
BD676F16
BDFDAEFD
3D122CD2
3D2565E5
BD2FCDD7
BCDE7400
3E07A206
BD2CC679
BD49A3E0
3DDD747A
BD739475
3D908C55
BD74A5BE
3E1C3D23
3E349974
3DCBD2EA
3D4CC2D0
3C7CE21F
3DBB9AE7
3E262061
BDCA7018
3DDD6A3B
3E041BA1
3D1B864D
3D9662DF
BDE76D9C
3E7E2F8B
3D7CE08C
BCBAA4A9
BE6543E7
BD86CE57
BCD4F6A6
BE432D2A
BDAAECFB
3D076CD7
3D634C52
3D11BF62
BE8A2D9B
3D85AA27
3E009796
3DAB2612
BD89C84E
BDB8FE97
3D15A040
3D9E411F
BE188F6B
BEA39A9D
BDD9B2C6
3DE2CB07
BC93114E
BE16A6DE
3DB19292
BE634553
BD7B0893
3D14ED3A
BCE6E46B
BD274309
3E151641
3DE80B62
3C98A97D
3D272B59
3D5BBFF2
3D31E8CF
BE389E76
BE251566
3DF2D3DA
BDFE99FC
3DFC77AA
BDB4E098
3D5EBCE2
3BC0C7DC
3C601FB6
3DB37C90
BC0698D0
BD5289A3
BD9FFDAA
3DCDB4B4
BDEFAB0F
3C888876
3C44E73A
3D17D1ED
BBE72B60
3CF44517
BD3ED786
3E301C4E
BE10A3DE
BDD0B292
BD734D62
3CAA3760
BC2DA3CE
BD0884E0
3D39D6CC
3DFAD3ED
BD47FCEF
BE260EE3
BDF7B41D
BE004B4B
3D9B3A35
BE1621E5
BDF8D954
BE3A8815
3E51B262
BB78D24C
BDC2833A
BBF58084
BE23C133
BDAD130B
BDDE86F0
3DE24AB6
3D6528AE
BDAB6196
3DAD228D
3E17D052
3BB5A500
3DA30C87
BD9976D6
3E1762E6
3DAACD5F
3CEC8A18
3D01BE94
3CF52179
3E043F41
BD5FC196
3E24C12E
BCDD7891
3E01A5E1
BE24CFBA
BC8ABBA1
BDD4B521
3E203E35
BE091A03
BB80D6A0
3E247D31
BDF5263B
BD35094C
BD4C98F6
3D4EC68C
3CC426E8
3D825C4A
3E1326DB
BDE84B96
BDC8A03B
BDD5D7A0
BD4A1DAC
BDA177DB
BD84E350
BDE8F0DB
3E24321D
3CC821C0
BDA96026
3B261C00
BB22B540
BC74D2B0
3E243BCD
BDF831C9
BDCB8402
3D999E40
3D0CA22F
BCF00983
3CF62A42
3CE1B1C9
3E120CEE
3E625409
BC814858
BD3925A0
3CD6D1DA
BD0755EA
BDD67121
3DA2291E
3DEC7893
3D2F4DAC
3DB54579
3DB13D6A
BA46AD2E
3CD0664C
BE16D5B8
3D46C6B2
BD9E5D40
BD634AEC
BDC4128B
BD949706
3E048B81
3D9A1ABA
BC380E00
3DE7FCF6
3DF0A022
BDB8812B
BD691EC0
3DDBC3A2
BDDDD01B
BD0F4C20
3DC0C92A
3DB6E6C2
3D6F4520
BBBFC400
BCBC4D98
3E1FDF23
3D11E754
BE226B93
BE0C3A50
3D527B00
BD103880
3DDE0974
BDC0850C
BDD0C614
BD5825B0
3D934EE9
3D3944F2
BD6187AD
3CCEFEC7
3DD90B6F
BC68F480
BD8F9B78
3D5D1942
BE5CE65E
3E04234F
BD7CFA5B
BE28E78E
BE4F8788
3D93095E
BDD70880
BDB74C9B
3D88A45E
3CCCFEB3
BDA71EB9
B9570000
3E0003D3
3E2980D3
BE0ED26B
3D58780C
3DCC5642
BDD5CDC6
3C5B5130
BD39CBA0
3E290A85
3DA2EDB6
3DAD6C12
BDBA9E46
3DDA8BB6
BDF48B96
BDA0DD6B
BE151008
BD24B00C
3D8A0006
3CC54E58
3D7B0D20
BDA0B5E0
BD86E71B
3D53EE80
3D405EEC
3D5AD142
BDC462FD
3DA0A268
3C4C9541
BE1193D7
BDDB979F
BDD447A6
BDFA1099
3E191D99
BDF0FFFB
BDFB6262
BD9A9225
3D77C935
BE0BD962
3D22E66A
BE006C07
3E3C1158
BCB5EE50
3DC4E258
3D3EBE5F
3DD4DFDC
BE0218BF
3DA662EA
3D251934
BD999D90
BB99C660
BDCA149B
BE15084E
BE1665A8
3E15A6E5
3CAC70C0
BC388D80
BC065C80
3DFAED0A
3E1D3BE9
3D19160C
BBC62700
BD8605E0
BBB58760
BD8674CB
3D34E28C
BDC4383B
3CC98D80
BDFEF920
3E0B8499
3D613180
3D41B3E0
3DF58AF6
3D2730D4
BE20324B
BE0A7E58
BDD12796
BE241F43
BCED46A8
3DCFD896
3D7C388C
BE24EF7B
3BB95860
BDD62BEB
3CDBF1C0
BE0E3580
3B13B540
BDCFE33B
3B904100
3E083193
BDFAD47B
3D73134C
3E0DD2F5
BE18CB73
BDD9777B
BD9C15BB
BC55AB30
3BC076CC
3E31EE57
BDEA8340
3E518EDF
BD4DE528
3DBA562D
BE206F68
BC85EB92
BCB65D93
BDF7A920
3C04A060
B9A849FE
BD1850F5
3C9361FB
3D93A162
BD81DF45
3E30CFDA
BCBCDBD3
3E226007
BE02C1EA
BC0F0880
BE1804E9
BD4022AE
3E0FA42D
BD0F8B20
BD79BB50
BE12C448
BE17CD3B
BE1A3536
3DA3EE92
3D88C7CD
3C12F350
BD2B8535
3E02452B
3C045477
BDD28BD3
BE1EFE33
BDDDBEA0
BDF20394
3CF548D8
3CD990D5
BE009711
3E24F562
3DE88F58
BDEDE010
BDAB8C4C
3DD3FC5A
BD7F1B16
3DC30932
3E1D2549
3D679380
3D9FAC56
3E13DC9B
3D2A064C
3CB990E8
3DE71162
3D9C7E10
BDD338E0
3D9B7466
BD9D1EAB
BC1BE000
BD490300
BD86EA40
3DF7CBC6
BD3B86E0
BD2AD720
BC53B0D0
3C27D250
BD16BDB4
BD7B56C0
3DC1CC5A
BD400D36
3E25141B
3E0ED195
BCE96B28
BBE0CBA0
3DB8DD66
3E02F253
BD90FCBB
3C2B4B50
3CA3B840
3DDBA862
3C0ECD00
3E130639
3DB0925A
BCEDCC98
3E04D303
B9655400
3DE95C22
BE0D97AE
BE03CBC8
3D99127A
BDE20F66
3DB9A646
BD4C8960
BD630100
BD2D3800
3E19F999
3B2492C0
BD92E53B
BE05DDD3
BDBAE806
3D59648C
BDB43C3B
BD2DA2B6
BC7DAE80
BE1B0820
3DA05EDA
BDC1AA1B
3C333A30
3E16C539
BDB869D6
BDAF4D66
3D9CB760
BC143580
BD9311F6
BE230168
3DC50F8A
3DDD21DA
BCEA3780
3D85093E
BD92114F
3D01FB70
3DA81551
BE5C3040
BD4DAF88
3E6CF1EB
3D34539B
3E5FCF62
BE1559AB
BE33506D
3D0FF533
BE77A4F5
3E1F9A78
BDE4F6C6
BE0FD2A3
3D1CC652
BE3BA100
3CE8AE42
3C4BFCAB
3E69ABED
3C90AD68
3DACCA1A
BD1B87CC
3DA0DE76
3E1C1D91
3D44E6D4
BE221650
3D0CFE8C
3D31F84C
3DC148EA
BD1E0194
BDF52FEB
3C991198
3DE8B9FA
BBD2C660
3E0D4159
3AB7F680
BE0BF726
3D8EBA86
BD7C6676
BDDED110
BD1C9A40
3DABC952
3E0A1029
3DA0E830
3E297321
BDF37E46
BE8A8FCB
3CE846F0
3E0AFD8C
3E21720B
BD68B2CB
3D80CBA9
BE08D431
BBC3D198
3E608240
BD8EF536
3E1BD30F
3D65A945
3CD08C28
3E17E2B9
BDAA6700
3D8D92AF
3E2989E5
3DE462C1
3D331752
3D415B3F
BE5E4576
BE5394D7
3E4DF41D
3E29FC65
3DE92427
3CEAE6BC
BE9C0F88
3E4132F2
3E3C2DA2
BD68EE25
3E0FA97F
BDC151FC
3E7C7D93
3B838F60
BE8180B4
3E123EAD
3E04FF4C
3D345754
3DC62A2A
3D418FFB
3D6639CC
3D599AC1
3E3735C3
3C7665F2
3D8BA727
3D1DA6F4
BE72451C
3C88EFC0
3D1B872C
3D23F6B4
BDC7191B
BE26A3E0
BDB05F06
BE29FF10
BE26740B
BC2A3050
BDBB26DB
BDC5669B
3D43356C
BDA8FDE0
3DCEC1CA
3D566DAC
3E284BA3
BCA67E28
BD9072FB
BDFE3D60
BE2609E3
3E07FDF5
BD14F92C
3DBBC5BA
BDADC0AB
BDDC5030
BDF13956
3CF25113
BDF84800
3DE525E5
3CD09B6F
BD080505
BD26357E
BDD22809
3DF0F414
BE281878
BE079FDC
3E0A5138
BDA592BD
BE1ECD1F
B99C991C
3DB1CC46
BD053FA0
BDFDB29B
3D3B8A55
3E145DC8
3BB383DA
3D3E5580
3DF1222B
BDC83D46
3E04B872
3D6FD381
BE83A5AA
3E0A4E16
3E1EBFAA
BE0A1A8A
3C88A8BA
3DEC4D1F
BDD2E3CC
BD1C6114
BBE769A5
3E088BAF
BDC0D2B5
BE0EDDFE
BE1F3EB2
BE31317E
3C25A934
3DA8CA70
3E25F43B
3DCB1B27
3DC43C4E
3B61863D
BD9863DE
3DD03BD2
BDAF41F3
3D772E07
3E363DE5
BE7D2BB6
BD4243C4
3D91897A
BE1AD696
BCB909E6
BD8B3EA4
3DF72C06
3C03A7A5
BDF248FD
BE0B5131
3DBBCA10
3E0CA25E
BDBDCDCE
BE010C7F
3E3E98BA
3D349020
BCEDD95C
BDE1DA14
BD64BA33
3E75CED3
3CF28A28
BD84C4DA
BE11D92F
3E27CA78
BDB281C1
BE38C173
BDF90A23
BDD5F451
BDDA2B1C
BE90F9C9
BE201A60
3E378A09
BCE2FB2E
3CBF056A
3C9E37FF
3DC197E8
BD19CAC6
BD8A7A5F
3DCD2745
BDC0D89E
3E5721B9
BE007496
BD2EC3FC
3E06F67E
BDDB7790
3E02F85D
BE1E6051
BB8BEB0A
BE6634D4
BD0E3CA5
BDAE50E6
BCD8ECA1
3BE71BE9
BD9D2262
3D01A940
3B79CB23
BDE23425
BDA61526
BC7C687B
BDEA3DF3
BCBD0C3C
BE0A0022
3E1134A6
BB0FC9C3
BD06EC36
3E0D3934
3E35DC91
BCBE57CA
BDB6CBA0
BC1A4C50
BC861F31
BD3A57C3
BD264042
3C32AAD0
BC9B6350
3D7487FD
BDFA3090
3E356BFC
3DED139A
BE162EF8
BE10219B
BD4EE58C
BE10CCDE
BD38EE26
3E136485
BDB424AF
BDF5A2F7
BD538D16
BE35AFC9
3D2B4DF0
BDA79DC1
3DD50C09
3DE4C3C6
BD9CB890
3DD903C2
BDE728EB
3D780454
3E02771B
BE0BE723
3CD7C4E8
BE13201E
3E058DB3
BDB351B6
3E1AB86D
3D99533A
3E16912B
BD8DB21B
3DA47486
BD556C16
3D333914
BE12BECB
BE0C4BC8
3C329AB0
3D63C014
BD9903EB
3DA1B51A
3DACA546
3D77BD16
3DA2B2A1
3DA654AA
3DD77549
3D9FACC9
3DACDDF6
3D4BEE24
3CE8B7C4
3D1DA4C5
BC8EB180
BE2C524B
3D8136D6
BD3822CD
BE22A6B6
BDFEC336
BD253820
BCF14023
3DBF9448
3DCF4B7B
BD425547
3DB232BD
BD1F892D
BE27D0B4
BE1CABF0
BD025EAC
BE141266
BCFAF998
BE0FA3A8
BCE5B658
BE1779B0
BDFCF0A6
3CA055A8
3E0D54CB
3E10C2F3
3D949536
3D223800
3E20D695
3DA805AA
3DE3AEB6
3DA026D0
BDEBADDB
BDE25290
3C943998
BDC4853B
3DC22E52
3C9AC3D8
BCA129E8
BD929000
BE1685A2
3D96EB26
3E055887
BDB0BC58
BDADBF9E
BD5815B0
BE166102
BDC8943F
BB881BAB
BDA6306B
3D84A21B
3E241321
BCF41F74
BCA74F42
BE06B016
BDE263CD
3D459F55
3E0B2195
3E395ACA
3D880437
3DCBD31D
3D2B40EF
BCE0215A
BDFA5EE6
3E21B531
BE0C69D0
3D5FE020
3E29857D
BE0CC6F6
BE1D1F13
BDB7910B
BD00C360
3DB775AA
3E01E50D
3DFEF946
BC0475B0
BD85B820
3D98141A
3DBE9EA2
3E1C3403
3E0DEC8D
BE182AF3
3E1A34AB
3E0CE82D
BD14E454
3E064595
BD252E8C
3DFD260A
BDAF87FB
3D6D26B8
3D83D5E4
3CA96423
3E37813D
BD964F8D
BE1A8832
BD849879
3A22113B
3DA7537A
BE1D59EB
BBE70FBF
3E76D03E
3D9ABE05
3E02186F
BD594905
3E4B4FFA
3D851462
3CED06A2
BDC5DA19
BD01AA08
3D929691
BC84EF65
BD8C5236
3DF55306
3E0230C1
BE05F6A8
3DB1AF12
BE26AF46
BCFBC8E8
3D0D330C
BE0E3463
3DCA967A
3D5B56EC
3E268B71
BE19A463
BDC56876
BD36332C
3E286DF3
BDDC50D6
3D6F27E0
BAD09680
BC68B630
BDB8C170
3D671DD4
3CC670A8
BD966020
BDA93ABB
BDD7B276
BDCF6760
3DF9B7B2
3E0CB529
BD05E42C
BC2F4230
3D09CD60
3E21E991
3E0E0B7B
3DAF7972
3CAB97A8
BD9DFD1B
3D88F81A
3DB53B82
BE1319CB
BC698930
BE17B82B
3E09BEA1
3D08EA74
3D06F534
BD615760
3D2E706C
3E0B6331
3DBAED46
BD6DDBB7
3E9C3EBE
BE7D155B
3EBEF33E
3D1A4A6F
BD922198
BCE33B68
3D2B2967
BCC0A07D
3E01B8ED
BE1A1143
BE482B7D
3E9A686B
BBB86726
BD0BF893
BE001126
3EA93156
3E2A8B97
3E75AE50
BE12A0A3
BC4C6681
BE8A3B58
BE0734C1
3D20F06C
3DD119BA
3DB22A0A
BDCECD56
3BAF62A0
3DBE87F6
3CE08DD8
3DBBA00A
BE20CFE8
BE022E68
BE230596
3E1556C5
BCA74AD8
3CE50600
3E015633
BE13BFCB
3C1D8850
BDFA8250
3D55594C
3E0439C3
BD2E2A00
BD5099C0
3DA6FEE6
3CAB1C00
3D3D5F60
3DB48D5A
BDA22010
3D0C1594
3D6CF0A0
3D2833A0
3D2D54F4
BDC02900
BD933AF6
BDDE2476
3DD451EA
BE059786
3D58BFB4
BDDB5086
BD9630A6
BC3CC7D0
BDFC2860
BD8E3556
BD9BE60B
3E227913
BE0D27A8
3D58880C
BC12E750
3E04B663
3D3B460C
BAFF1980
BDFBA3D0
3D9EDFDA
3D681EB4
BE299B88
3BA4A600
3C749230
BDAB633B
BD317836
BDCD9786
BCBA8900
3D8E4DA6
BDF8B280
BC2FF0B0
3CFF2298
BD844F56
3AF20980
BDD4A9EB
B9178000
BD8885CB
BDB89830
BBBF2100
BDE83FDB
3D9E04E6
3D6566B4
BDD2A140
BD884B6B
BE0DE9EB
3D6471CC
3CFC64A8
3DE77842
3CF876C0
3DA9C330
BD3E17CC
3E23A461
3C8A76A8
3D098BEC
3DE1F83A
3E003BC3
3B4C7340
3BC64800
3D492DE0
BD84F9DB
BDAD28FB
3AD96C00
3DA9463A
3D98D650
BCE9A440
3D8FFE03
BE21FF62
3C7A1F02
3E04EDB4
BDC40488
3DA54687
3E2403B9
BE8063A4
3C86E6C3
BDE37746
BE1FE1F0
3E694E4A
BE4E7728
3D643027
BCD550DD
3E086287
3E2A96DC
BE82A566
3E36C038
BE71DAB8
3E80C130
BD0D95BE
BE195736
BDBE3640
BC6F3750
BCCCBEE8
3C6973D0
BDA29456
3D16110C
3E06358D
BE0B7760
BCF3A818
BDC7E756
BE0FE5A8
3DDA9262
3D3AE8F4
BE04C180
3DCD9886
3CE2FFC0
3D86ED10
BCFA9F98
3DA44DA0
BE2496B6
3D02B6C0
3DE6EA62
BD67EE0C
3E1A83C3
BCD05B28
BE392AC7
3E5D4ED3
BBA6DA0A
3E757918
3E1AE77B
BC031308
BE83BDCE
BAD7E6BE
3E677856
3DA6D110
3D3BC1A3
BE15A81E
BDB6FD17
BD6BF8D6
3D18E940
3D95E440
3E49E088
BE245F81
3DFF750D
BDB797BF
BE8AE8DF
BDAE0E4A
3E03A4B2
3D7EA8E0
BD9DBE61
BDB2C437
BDCE6805
3B37BF41
BD2138F3
BDC02D21
BCEC6084
BD0A94E2
3DF328A0
BD799DA0
BE3A0448
BD4835DB
3E00201F
BC085580
3C9B0DB0
BE341164
BC55D5A3
3DA56BB6
3E07A481
3D343F68
BD50045F
3DF561D7
BE87B21E
BD23BB00
BD2F0C36
BD23F620
BD9409AB
BE1F7416
3DCB6DE2
BD4F202C
BCCE31C0
3DA5D430
3CD93BD8
3DBADCE6
3D5DC934
3E296655
3CDD0C98
BE155B00
BE1D9DA0
3DA20060
BD9F5356
BDD0CA7B
BD85A9BB
3C3712B0
BD8617D6
3D914700
3DA107A6
BDFB61CB
BDEE2DCD
BC92D279
BDA0B0B6
BE18C300
3E3163BE
BD178522
3E2BE1CD
BC9E6D56
BE05C0A8
BDC8F626
3DDA3C77
3DBEDF93
3D8A79D1
3D9B16A2
BD859700
BE1A677B
3D1D429A
BDEF1648
3D71CEBF
3DC92D87
3E3677C5
3E362EEA
3D6D9FFD
3D94978A
BCCBCCB9
3D200B3B
BB2AB86A
3E17876F
3E09AF25
3C89F315
3CF1760E
BD8AA423
3BD162AE
BD3F6260
BE26E0FA
3B16C9B2
3E056791
3DC022D9
3DC21820
BE1B71F2
3E8930CE
BD78BF3B
3DE539F0
BE73211D
3DDB7016
3E2D7B2A
BDBD517E
BDAB7ACB
3E9426A8
BE5BFBAB
3CEF3108
BD1FCCA8
3D0BDF92
3DCF18C9
3E995C6A
3E1F4D09
3BC912AC
BDC6D87B
3D681F99
3DF298F8
3D34A3E7
BDD94454
3E19957B
BD890957
BE310B7F
BDA3C6FA
BE959CEB
3D42B99B
3DE5CE1E
3E9BC941
3E0ECC69
3DFA08EA
BE07DF78
BDA9BD09
BDE88EA4
BDCE0DEE
3E06E1F2
BD2B5089
3D87D6A0
BDCF4BC5
3DD3995B
BDB73BE0
BD74A27B
3DECE1B0
BD9D787A
BE0559CF
BDAF3D1E
3D639D47
3DA167A2
BD68E2BA
3D722E40
BE6EC422
BDD0D6D0
3C5B6A0E
BD571AFB
BE0495A3
3D005353
3D9C22CD
3DCF3B82
3DBD6F84
3E2FB4E8
3D8C097E
3E37E96B
3E2E25E8
3D901ED4
BDA7A420
3D4B48E4
3D65A1F9
BC5F3AD1
BDC8CC61
BB800B33
3DA4B846
3DCF4659
BC56B531
BC94C607
3DC08B8A
3E30F9AF
3D9CE8B5
BD87FFF2
BE0CB7C0
3E1A50E3
3DE26CA2
3DF91852
3E1FE61B
BE05F9B3
BDCB8090
BDAD9573
BE01EEA3
3E0B3F67
3E22B5C3
BD239D28
BD7F0A4B
BC0B5AB0
BDFDA116
3CC2F5FD
BCBF5900
BE03F7F0
3D1F0786
3D17AA0A
3E1D7F24
3D9069CB
BD8BA7A4
BDD6F91B
BD2F8CD6
3D4A4D8C
3E0B174B
BE14D3C0
3C357050
3D0F6F54
3E260AA9
3B193CC0
BD6BA2AC
3DA1E65A
BE23A290
3D1C2F14
BE28BFD3
3E1959A5
3D95795A
BD3DB0A0
BDCA7D06
3DEE25F6
BD8D7266
3E08C4BD
BE25915B
3D9F71B6
3DB5848A
BD710B56
3DC0F00A
BCDA3772
3E2C6659
3DEF2F43
3E63F2DA
BD970FCB
3D96738B
3CB49038
3D58665B
3EA4E234
3CC03A58
BE1BE6A4
3E454947
BCF61AB3
3C98B20C
3D398871
3CE62268
3D970D97
BC96B37E
3E3CC98B
BEA8BDF2
3D7A4339
3DA11CFE
BCB1356C
3DE27E46
BDC7DED6
BC267D00
3D06D674
3D8801D0
BE03F858
BC07FE30
3DF593AA
3DC27182
BDBA4720
3E0EF7B1
BCD0CBD8
3D8441FA
3D9DA316
BE1F528B
3BFBAE00
BC2359B0
3DF2C28A
BCC88140
BD64AB60
3D1A1D6C
BD4EAD16
BE24852B
BD898390
BD80DB7B
BDA5480B
BD1CDB29
BE1BF79D
3DDFF19F
BD6692A1
3C3AE132
3DFC72DF
BE08E8A8
BD5CA8B4
BB77A0C0
3D565048
3E2DF8EB
BE4500D2
3D5ADD5C
3CAFB683
BDEC1BD3
3DD01D05
BDDA1445
BD389C70
3D5D6812
BD99A483
3E161F81
3DC7F086
BD8EB646
BE074C38
BE219696
3904B400
3C9FC8E8
3C96E6C0
BDBC7EAB
3DDDCCC2
BB3C7940
3E25C4B5
BE239D33
BDDB3AD6
3E18CFBD
BE2340AB
3E046EFB
3E25741B
3D948A6A
BDE4EC10
BE247683
3DDF8DB2
BE0BCC33
3D32C194
3D9A3F5A
3CCA5F98
BCDB6928
BDBB705B
3DFE2164
BDB52B45
3CE1377A
BDECB217
3C7E588C
3D06E232
3DDEE7AD
3E5DE956
BE08558E
BE236865
BDA1A4DF
BE0F4C42
BCB2ACD4
3D906D71
BD8DD480
3E1B29C5
BDC9230B
3E331F5D
BDA56D97
3E421CF1
3DB70040
BDC30A7B
3D1F798C
BD84F71B
3E1629CD
BDC7C3B0
3E0F4935
3DC2E416
3D2EC68C
BD5E4296
BE035973
BD945F36
BDB4FFC6
3E104B6B
3DC64742
3C060A00
3DC43922
3E2391F9
3DDC4C16
BD34A700
BDE24C36
3C299400
BE185068
3E09BCD3
BD952966
BDBB15C6
3D692C2C
3D9E7890
BDACFB86
3C9765E8
3DBDD722
3D8E5BE6
BE0E2016
BDBA54A6
3DBC0762
BC8103E8
3D83230A
3E0D3009
BD8EF026
BD915CAB
BD7A1420
3D4C96A0
3D1E7860
3DFEF84A
3DE829E2
BDFB6CE6
3D44C8CC
BCFB4800
3DB9A9CA
BC3EAC30
3E0FB351
BE4734C2
3D352EBF
3E339150
3E9062C9
BDD51BB4
BCB99CA4
3D8D0E6B
BE8AACE5
3DB28C07
3DA5D500
BDDDAC2F
3E1C51B0
BEA04A74
3CB7B5BD
BE011E07
BC5EF0DD
3E37061E
BCBA19F1
3EBA19F1
BD19F8BA
BE3868EB
BE34C004
BE01263F
3DAC9A46
3D6DD04C
BE0E3D36
3D0B4682
BDDFEBB9
3DA255C0
3CD88440
BD4B4410
BD00FB74
BDCEF2F4
3E27E53B
BB8ED573
BDF16D7C
3DE8A192
3DF6735A
BD874F0B
BE1A22CB
3D3F1314
BE1D1768
BE22F5A6
BD64544A
3DCEDD78
3D9284BC
3CA16643
BDA97B60
BE210330
3DF06ED6
3DDBE9F6
BDC01576
BD00830C
3E28E273
BD80457B
BD882DA0
3D13CB34
BD50B120
BD2F07B6
BD37566C
BDE5AC56
3DAA138A
3E26B26B
BD9DD006
3DC9853A
BD15FAC0
3D7C1140
BD17B840
3D9435C6
3DDB2E3A
3DAAA130
3E15125B
3D88E100
3D6F1494
3E00B21B
3E01B933
3D39CB54
BDA0BE40
3DB85BD6
3D957706
3D76C940
BDDE0D80
3DF42A62
3D65F880
3D295040
BDA358DB
3DCC6682
BD98AB1B
3D8C04B0
3C8748E8
3CEA5658
BA669D00
BD16C76C
BDAE7240
BDB993BB
3D9B6516
3DFAA982
3D21A700
3CFDCC40
3D9FCD16
3C79BF50
3C4932B0
BDE05176
3C9959D8
BDDA977B
BDEB38F6
3D8722DA
BE02F3A3
BDE84306
3E0BFF75
3DBFB066
3DF75516
BD295F60
BDFF809B
BD84D5F6
3D9F0306
BE2A5C46
BD701020
3E22748D
3DE1E376
BE15FB85
3D3BFC06
BE304940
3DD754D3
BDB1ADE7
BCDB3AA3
3E560B05
BE68D7DF
3E990888
3CB723E8
BDD09092
3EA368AD
BE333270
3E1D3D64
BE375FCF
3D92435C
3DA786E5
BD86891B
3E6D507F
BDEED4C7
3DB8BA1F
3E425F66
BE33E606
BDE2976B
BD5F2D60
BE2A1723
3D06CCF4
BD96C206
3DC89A1A
3DE0C7A6
BDFA92E0
3D28348C
BE1A6A70
BC2853D0
3D183274
BDC1E4D0
BE24A5BE
3E0242A9
3DB89916
3DE36D8A
BD927F16
3CC839E8
BDE7556B
BDA574F0
3DEAA042
BDA6FB0B
BD8040D0
3DE8AE9A
BD341FA3
3E92BB26
BE8FFCA0
3EAE6CD7
3D1DFE16
3B0D98CA
BF040883
3D36A3BC
3E39B529
3D45DAA0
BDAF7BF3
BE7C1E7E
3E686D5B
3DBBFC52
BDBF0CBB
BE2236CB
3ED892F8
BC479309
3EBB127E
BE4B2655
BEEDB21F
BE93515E
BE3CB582
3DB9A2EA
BDD8F2D4
BE1D1985
BE0AE280
BC6A731C
3CD760BC
BE33081A
3D2E9B1C
BD815770
3DF0C536
BD343640
BE1F7DBC
BD17F9EC
3D6147F1
3D33CC14
BCB598C0
3C4B6C47
3D1DBA02
BE3683C6
3C1F1918
BBDA7EB5
3E348A8F
3D96437B
BE57EED8
3DD16832
3E234FF5
3E054F05
3D4475C0
BDD44A8B
3CFAC180
BDC6ABAB
3DEC1292
BE15A40B
3D767E6C
3DA1AFFA
BC849A80
3DEA8F36
3E21EE29
BE10397B
BB4B5940
BE1F29B8
3D4335CC
BE03881E
3DB9F1FA
3D278300
BE07BEA3
BD175A6C
3E11E64D
3BE14060
3E0F3737
BE204C2A
BDAB5135
3D2A34D5
BDCB1E85
BE234EE3
3C9C5BC5
3D6164E5
3DB3930E
BB17A4C0
3D24849B
3E1DAA84
BCA22C5B
3CCDCF61
BE24C7D3
3D1FB27A
BD623544
BDA09929
3E126C5D
3DEA0968
3C8F3784
3E078A6A
BE23134D
BC9E40D8
3E1D478C
BDBE60AF
BAA958AA
3D4A60D6
3D495378
BDA1FB3A
3E6651E3
3E60AB3C
BD7E4D99
3DC77496
BD418937
BD778D21
3DB46DAE
BDCB55C2
BDC89611
3D20A4D1
BE3594D7
3CBC2841
BE2341CD
BC4655EB
3D6024CD
3E4B1675
BD86CCCC
3DA3D156
3D7A9D14
3E133B1F
BDC88516
3EB96BF7
3D995998
3D6766A0
BE9D0C69
BD949D4A
3DE16D2A
3D0254C0
3DD24824
BC7D2A46
3DF393D2
3DC7D105
3D3F40B5
3DBB377C
3DF56D88
3DF36546
3E2C7803
BE3C2456
BE96995D
BE80CCA0
3DD47540
BD568EAC
3E5B7318
3B3967AE
3DAD0531
BD81F9A2
3DABA759
BCD608B8
BC97BA7C
BD71954E
3D76900B
3C73F580
BCB08365
BD7BD2F3
BD6E0476
3E06417E
BE1836C1
3D3E6C17
BD27D1D4
3D2F2E23
BCB16B68
3D489A1F
3DED43F7
3DC8F9C3
3D1BB707
BD02ACD4
3E3EF662
BE3BF7D4
BDC3ED95
3DE1D2FD
BDACE641
3D14B362
3D8A19D1
BDB44F38
BD95EC64
3ACAC800
BE59A526
3CC7D30F
3E18CB6A
BD72DB44
3D6AFDC6
3DBAEB08
BCEF44FC
3CBE8A44
3E2601F6
BE0ECFA5
BC816566
3DD8A6C2
BE4CE5ED
3D3BEC2C
3D222514
BE0DF5C5
3D6D87FF
3D974CE3
3CB09198
3E0D5CD2
3AC9CB47
BC4CF680
BD861582
BD73F80C
3DE18101
3E29EA6A
3DE1D836
3DDB261A
3E19CFE0
BDDDAB20
3E12648A
3DAD272E
BD362E8D
BD6075CD
BDFB1863
3C05C1A4
3E036AAA
BD698320
BDC4900B
3DF9BF62
BE1FDAD3
3DD2ACFA
BD82BFE6
BE133743
3DF3DDD6
BDF19766
3D9E2CCA
3E014421
BD2A804C
BDF69AF6
3DDA9ECA
BDEC320B
BE1C179B
3E2951D3
3DF5BC76
3E05A869
3D648DEC
BB90B200
BDC59556
BD39E04C
BDF8E290
3D86F3BA
3DBA320B
3DAA9548
BC856325
3DF9B10C
BD725B43
BE2BECBA
BD83CA9F
BE16E073
3D2CB42B
3E28147D
3B014F86
3E38F2A5
3DBC0D23
BCA2CE1B
3D3608F8
BC3F3FFE
3D8D4557
BCD5C9B2
BA9A6AE3
BCBC172D
BDB34AC5
3BA9CC14
BDB3E8DA
BD9FD830
3DA27A16
BB889000
3E179543
3D6A560C
BD8B193B
3D6AD834
3CF66140
3E2A64A9
3C418C80
BD396C4C
BD306060
BDB262D0
3DD035D6
BD133C2C
3E107FF1
BE2399D0
3C870A58
3E145401
3D821F4A
3D342160
3D03596C
3D8F0520
3DDC98C6
BD883F40
3D296C95
3E39154E
3C695A7B
3E1B9F5F
3D8DBDAA
3E100A73
3CECF4D0
BE34EFF1
3E644699
3D2A89B4
BE427C93
BC281D25
3DAAA7E4
3E0AB442
BE0314CC
3D11E688
3E5BCD4E
BD750923
3E8828D0
3C36439B
BDC06082
BE2D61D7
BDD6F0AD
3D0D5560
BB5438C0
BDFCD310
BC8AE880
BDFCD69B
BDA4B780
BDDFC7F6
3D1E146C
BD8FA03B
BDBC75B6
3DC2F8D2
3DA598D6
3C844898
3DA914EA
BD7348C0
BD1550A0
BC8BD398
3D6A5714
3D5E5320
3DEB0A92
BE127270
3CA5E140
BDAFE110
BE1C2400
BB773540

