3DAD5AFD
3E85C187
BE7C554A
3D2C8C75
3E00A503
BDD54C43
BD3B6620
BDFB84E9
BE932AE2
BE449065
BE480E62
BD204244
BD9656CB
3ECEACE8
3E4FFD0A
3DA37EEC
3E95B58A
3E3727CF
3DAEECD0
3E6B8EDA
3EAB1D2D
3D6FB993
3DCE605C
BCA38E98
3E178851
3E641276
3D3CE2DB
3D8A76BE
3E2A68F6
3DD9E7C1
BE44DE22
3C1AE39D
BD29ABF5
BE30D57D
3D2C4722
3C0A6480
BC632F00
3D4A2C16
B9AAEB72
BD1BA860
BE58B869
3E281026
3DC52B64
3D6C8790
3E0B813F
3E0AE88D
BE099A0C
3E2A19C1
3B80947E
3E642A48
3E7F04F1
BD5E1260
3E397289
3E4A70AC
3EDA7928
3E7D13FD
3E3450B4
3EB55213
3D3896F4
3CB62BF0
BCFF7584
3D3D8206
BE4D8D44
BE28DE0A
3DEE9770
3DAAB8DC
BDD4AD04
3E169DEE
BE98667A
BE0BCC65
BE2B138E
BDECD22E
3DC02ADD
3DB52DB4
BE81555B
BE1EF6D1
3E97ADFC
BDC16786
BE5216D7
3E268799
3D734843
BD88A9A4
3E152D99
BE3B4015
BE1BCF7E
3E9FBD83
3E862243
3DACBC2A
BC8A834D
3E856D36
3CBEE0DE
3E8CEA1F
3C88D368
3E810923
3E743BDD
BD6D42E4
B9E4AC2B
BE26C706
BE45B390
BE0E64D4
3C76EEEE
BE68FEFE
BDC300C8
BDEF69F8
3DE3915A
BC762B52
3DC84045
3E24F441
3DACBCE0
BD2B306F
BC68FDF1
BDBBB758
3D32235A
BD512A84
BE071FFA
BDEEB22C
3D7C6771
3DD37F5C
3D1C8DFC
3DF5A322
BBD45A7E
3E1D1ADF
3DF81510
BE38DD05
BD039142
3EA9B14A
3D18B9F2
3E7C275D
3E34B8D8
3DD0C1F6
3E90B396
3D2360B4
BDB0B851
BCFB08D7
BC4195F5
BD529528
3E96C8A8
3C2E01BD
BE2F78AE
BD656937
3CF34D1A
BE69B161
BDD1D5E4
3D806836
BD9C7B6A
BE79C0B4
BE163F95
3D84D3B9
3E9B77F7
BDEE2925
3D5D3081
BE26BA82
BCFAA808
BDA09293
BCF41BB1
BE03A17E
BD2FBC70
3DA32670
3E95ACE5
3CC3E0FD
3CE08F3A
3C345370
BE0BB842
3ED56DE3
3E1C7674
3E9908C2
3DDFA6BB
BD5D8D1C
BD74CDFA
BE7EB31F
BDF9C224
3C86DED8
3E3DF9D7
BD219355
3E8BBCDE
BE001673
3D404E6D
3E42E682
BE2D5142
BDAC043D
BE50EE74
BE3630C9
3E2CCD14
BE0382F5
3E41428C
3D86297E
3E557DC5
BE0C2BBB
3DF8E1FC
3E2CAD06
3DED88C2
3D8640C6
BDE56619
BDB6ED2B
3F13D5AB
3DF74F76
3E425CC4
BD80D54C
3EEB80DA
3EE05FA7
3EB0D79C
3EE2718B
3EB03007
3D79EBCC
3E0EE0BA
BC436DDA
3D050F88
BDFAF44B
3DA3FF01
3DE1BD35
3CE1D540
BE044866
BD9D234F
BDB3AF3B
BE6ABC05
BE358B5D
BC949078
BD19B17D
BDF226EA
BC6EBEE9
3E374656
BC7B2082
3C4EF7E2
3D228222
BDE264D6
3D4AA579
3E2BEA9D
BCB08CA0
BD451782
3D34ED7D
3E876C5C
BD4E8AC4
3D35AD7B
3D274037
3DC9A7B0
3E2FDD3F
3E57436B
3E90FD11
3EDC59D5
BE11F000
BD016663
BDA52D41
BDB7CCE6
BD809041
BDE9FA36
3E173495
BE29EC61
3E2BF239
BE7D51AE
BE2A1DF8
BE020FF2
3C0589B0
BD1FE12E
BE07A8D4
3E057005
3E0175AD
BE2E03B8
BD1B8F0B
3E3EE3B7
3C8CD534
3DB60D66
3D4A7D73
3CEF9DEA
3D85EF1A
BE1C6D7C
3E03A5EC
3F060130
3D9E9779
BD207965
3E51B576
3D95A982
3E265B8E
3EC30480
3E97E12B
3EAEDC30
3E205A5D
3D857071
3E7900BC
BE94F523
BC9870A1
3E000A13
3D6E585F
BE13266F
BD5CF128
BE3E54F8
BDE4EFA3
BDD55265
3DA47822
BDEB1DC4
3B8BFBA8
BDAC800F
BDB3625C
BB0BEE4F
3E3DB525
BD54D917
3DBB621E
3D366D2F
3E167444
3B8599F7
3CBC1FE0
3CADA328
3EB8AC8B
3E0E2F1C
BE12E6DE
BEA49C26
3ED7B9BB
3EBE12D2
3ED0C07D
3D6C0228
3E62247B
3E439CEE
3D596400
BE3D65D8
BE161160
3E506009
3E0E05DB
3C829F20
3E343FD7
BDFCAD39
3E3CF35B
BD551CAE
3E76CF01
BE1B8FC5
3E128E47
BBFD473D
BE465555
BDEDB88F
BDDBEF8C
BC716B26
3E3A4986
BDA101DB
3D8FBE21
BE21D8CE
3E232E2F
3DC9526F
3DA32CD6
BD81727D
3E965CDD
3EB2E1B5
3E2C1DB3
BD9E1227
3E519FCB
3E7EAFD6
3EB9EA50
3DC2E9E4
3EE1BB49
3F039725
3DBCD44A
3D88A6C1
BE009BFF
BE1A246E
3CB37861
3E180135
3D6C3B97
BE1550B9
3E2F58C7
BD074ADE
3E07DE00
BD8E4EF0
BDFBD479
BD4C1875
BD9FD98C
3E8A50D6
B78F8B03
3EB9F46C
3D208BDE
BD70E9B9
3E48716F
3E3C3D7D
3CC658A8
BC03EE43
BE31CD0E
BD8E4618
3DD0AFCB
3EA52FF0
3DDF4F2D
3DFF6A19
3EAC5909
3E25EDB2
3E755ECD
3DA34A9B
3EA0BD17
3ED13D92
3E31DB65
BDE426C8
BBE42653
3EA029B6
BDD3B3A3
3E0CB717
BE1126F7
3E8FF098
3D9B973B
3E8B984C
BD7EEA48
BE0FDB41
BD935959
BE46E43B
BE30FEA2
BDF1E78E
3D8ECA9E
3E18773F
3D937DD0
3E013975
BE1CE2E1
BE11AF44
BD1ABD8B
377D8920
3DE51142
3D3C834D
BD4FF14C
3EF20141
3C5B5C81
3E93A4EC
3D3283C6
3EFA0536
3E748DCD
3EE83724
3EFD4DEF
3E76A0BA
BDA1E4A8
BBC4A9E9
3D057AB6
3E576048
BE3F8800
3E9CCDAE
3DFFA818
3E52D936
3C715B20
3E23AC61
BDBA79C3
3C802F2B
BE44E53B
3C1BC3EE
3E80E6DC
3DB5D2B4
3CFCD7BA
3DD1E627
3E7096F0
BD3B224C
3C8B99D9
BD8C8E36
BDEEA017
3E719398
3DE3BDBE
3E24494D
3E55ECBB
BD0CC80C
BCC3710A
3E14C7D1
3E9DB967
3DE90F0C
3E999B19
BDFEE9C6
3E74C5A4
3E3E2CF3
BDC4A8E5
BB1DA12A
3CD4DCEB
BDC2FD4B
3DB1ACF6
3DDF7453
3E415A9B
BE26A6EB
BC0FF5D6
3DA7524E
3D248357
3E3F494E
BD54608C
BD6C2FC2
BD431BAB
3CD49A83
BE04C67C
3E22E865
3DDAC0B2
3D668505
BD1B2017
3CF6C18D
BD8BB246
BC2C7B8E
3C069F00
3E00442A
3EBF8AB6
3ED9DFDE
3DF93E6C
BE06425D
BCDAAEFE
3D781375
3E456D11
3DC32B2C
3EB7C07E
3ECD4EF0
3D822E9A
BDC063FF
3DC4B5D0
BDD02FD8
3CFC3454
BD71E62A
3BB0869A
BD7C71CF
BDB144F0
BDD05CCC
3E2B9815
3DEA59B0
3DB6682A
BE4B8B7A
BD096FAF
3E8E120D
BDBD4490
3D8E4C94
3E371371
3CB0B252
BD4BF97A
3DF3758A
BE00CD32
3E857ACE
BD5016DC
BD4F6A9C
3E9D385E
3E224770
BD5696C7
BDBB1BE8
3E885C0D
3DA25049
3DF50029
3E9D83E6
3E08FA1E
3EF67D56
BD3589D0
BDB67CD4
3B430FBD
3DBE4144
3E27435A
BCEA9606
3D829BEB
3DF6C577
BC606741
3E8DA06F
3DA3BCA6
3E7F8872
BC819A98
3E3E0352
BDA8BED2
3E0A1F47
3E2A087D
3E0E9D6B
3D8500FD
3DAE0E64
3E178BAD
BE05A597
3DF41E35
B9A75BB5
BE22D21A
BE490D7B
3D4E76B8
3EF8EC24
3C3B1E33
BDC255DD
3E40DB06
3E9E79F2
3E1C5CF9
3E5A5BE9
3E4D8E56
3EE8B8A4
BD8E17A4
BE0139D8
3E05C5D7
BC976B36
3C3035B2
3D89417E
3EA2744F
3DFC63FD
399CDB2C
3DC5BD7C
3E3D2806
3DD9C171
BE291608
BE127564
BE2390C7
3E8FE482
3C86A052
3E7FB0A2
3E36E3E1
3E42821D
BE005E97
BDB3C36E
3E6B8D01
BDC70420
3D9BBA8A
3DEE2ED6
3D53511D
3E8F05BF
3DB6A3B0
BE964B8C
3ED79813
3E819EE9
3D944A60
3DA92F15
3EB156AB
3E39553A
3C64DBC0
BDE927DE
BD29CCDF
3EB4C80B
3E10B242
3EA8135E
3E62CF69
3EAC8E48
3DE3870B
3E511F61
3E4872C9
3E18EA12
3CE85D78
BE3CD801
3DC2FEAE
3DC37250
3DD5F7EA
BDD9EDB4
BDA6EDA8
BE141E3B
BE3D1969
BD3A86BA
BE5F112B
3E217060
3D0D6FA8
3D2F71F5
3DEB0228
3E5EAD0F
3E4632C5
BD993379
BD2E7B47
3F27D249
3EA808ED
3EC506F4
3E9D393D
3E9679C9
3D9E18C2
3D88968C
BE2C17AD
3DFB370A
BDC340FA
3E59DF29
3E85752C
3E8582B2
BE3DDDF1
3E83D5F4
BD4CE1BF
BCACFBC1
BC7F7570

