BEFB3A1E
3ED14A7C
3EB932E4
3E800AC9
BEF4B12F
3D3653DA
BE7851E8
BECE119D
3EB61191
3EB1E8F1
BF2FB4DD
BD336CC5
BEA9F612
BE97F200
3CAF39A8
BEE55862
3E8612FA
BD035A57
BE52457F
3EF4C4E2
BE8D889D
BE08BA82
3CA8E414
3EB57548
3F2182E3
3E907074
BF085F21
BD8B4634
BE7E3245
3D749B08
BE1CD045
BE18244C
3F263F70
3DC5056C
3E5C5353
BF22B4C8
BEB85605
BF2AAFFE
3F2C4A79
BE9AFA39
38C42AD5
3E2BA3E5
BE6BC8B8
3D9E83F8
3E2AFEF5
3EEAF9AB
3C6ADBE3
BE8F4805
3F043D29
BE1C9C61
BD17B71B
BE929203
BE838F58
3DC7AD57
3F239AF4
3DF3D5D4
BE378743
BF091405
BE1176AC
3E8E535B
3CEA1C48
3EC56D4B
BE691BEA
BD0AB37B
3EF103B1
BE19FB99
3CDEF8C5
BEF7D6DD
3F06AA11
3DD2C604
BEA651AC
BEDD8A1A

