3D58ADE4
3DE292F4
BD1EEF2E
BD7AFDD8
3DBF33DA
3D3FB55C
B98CE600
3DDAC83C
BD28D2D5
3DAE2E6E
BD7FE31E
BCDBB0B0
3D9915E6
BDAC9DD7
3D964CBA
3D23F9A8
3DDFF642
BDE137F4
BE0071F8
3E014550
3D5A5A4E
BD89C2A6
3DE50792
3D63F98C
3D8916D9
BDD4C5D1
3D89E032
3C98C08C
3C032D00
BD999ED0
BDB884C3
3B981360
3E905FC4
3E056862
BCD53913
BE065104
BD55D198
3DD653B1
3DECAC99
3CB56CE8
3D61E01C
BE5FF3AB
3D9260DC
BDEB1B5E
3DF97B49
3DD0A0D0
BD0564D6
3D660EE4
3CC7A292
3DE87116
3CD82BC0
BE0EBBE7
3DF99641
BE018B75
BCE06890
3D5BFA0C
BC5735EA
BC5AFDA0
3E881323
BD3F2998
3DD0401C
BE008113
BCE14BD4
BD45A0E0
3E57D7CA
3D5FA8B6
3E0838FD
BB8BC7C0
3D9EC484
BBBAA520
3D8085F6
BD82FB2F
BD6CC45E
3C616020
BD51B734
BDA3EE9B
BDC3625E
3E06E2A0
3E06F080
3D004E08
3DD086C9
3C7C8D50
BD6821E4
BDF4F6D7
BE04AE3A
BE0E91EA
3D4E1592
3D837BFE
3DC1BDAC
BD9A641B
BD0F7F09
3B1CEB00
3C022ECA
3C216830
BD9850B2
BC6161B8
BD99DDFF
BD2463A2
BD12CBE8
3D41E7F3
3D01EBFF
3D9B943A
3C2EFE90
BDC6BE44
3D37DD1B
BBB210C0
3D5B29D6
BE48548E
3C9ECE60
BE109914
3A8910F2
3E3235AD
3E11B416
3E084E05
BE016621
BC8EC6AC
3E0FB965
BCC71C84
3D240175
BDD85E0F
3CBBBF21
BDFC3D3B
BAC35480
BDBE30B0
BD82C23D
3CD8C048
3D599364
3D5DD8B0
3DB090FB
BDE0E324
3E5CF032
BE7C666E
BD23FCC0
BE05198F
BDD328B4
BCC3C3CD
3E2054DB
BE05E311
BDF093E8
3D13CDE0
3D8AC3B3
BDAD6794
BD066CD2
BDB8425E
3E84930B
3DE31876
3DC00EDC
BDC6DC9E
3D175439
3D3E31E0
BDA380EF
3D22331C
BBFBAF7E
BE06AD1F
3ED23255
3E9319B2
3DDFA64A
3D76FF8E
BE037A1F
BE267188
3E25070D
3E9E33EB
BD96F131
3D38E91C
BE16D78C
3CDEAD00
BBB8C2E9
BD57ADF4
3DC30E38
3DA52024
BDF4F5A5
BE459B0B
3DFDBD7B
BD8F0624
BB8F0C60
3DC86828
3D80A6AE
BC6FFE60
3E2B2BE7
BDE856F9
BCDE7800
3D1AC6EE
3B9F2D8E
3DD0A979
BDA17814
BD84277F
BC867420
BD34DE66
3D5E3F99
BDE4DF26
BCE52CE9
BDF23EC6
3DFABFFC
3D1CFE2C
BDACD598
BC9494BE
3DB30DBA
BDA434BC
3D1324CC
3D6D6D20
BBB01002
3E01BB9E
3E8DE49A
BD95B715
BDCA5880
3D55FD9B
BD5B0F2A
BD3BD02C
3C51EEDB
3E45C383
BCECA35A
BC96AA38
BDD746D9
BD6FC38E
BCAFB050
3D75C840
3DA9C3E6
BC4F1F70
BE0A7FFC
BE117C1A
BC967678
BD17C6BA
3CA92740
BE08E0EC
3D6CF2FA
BC7EF240
3EAE09D5
BD2FAC89
BD8FB80D
BDA7B27F
BE16FFB5
BDE5959F
BD8D2F6E
3E24972F
BAEB0DE2
3DADE7E2
3D661101
BDDD0928
3E21F7D6
3DECE8D0
BCD6CCEE
BDDB58FD
BD559BF2
BE0DBD0B
BD2CACA1
3DBEF23A
BD5A55F4
BDB16CAB
3E446EF7
3DFA4F9C
3E9BB3B8
BE88D17C
BE0A86F9
3C83A137
3E3C13F3
3D1EEECD
BDF87F5C
BE408841
3D86C9B5
BD9C8F8A
3E54F9CA
3D8C5B32
3E0D515B
3D345F78
3E08287E
BD895949
3DAD17B2
3DB76C66
BDBEF485
3DC19256
3D538760
BDC2F79F
BE0060E0
BC748B40
BD8BDC36
3DA46E3A
3DB14BDC
3DCA8440
BC652070
BC7AC4C8
BCD9E488
3DBBCDC0
3B277E00
3D624D90
BE0AA2DF
3CAEAD00
3DEB0C18
3D88E1FE
BD94377B
BDEE081C
BD200E96
3DFE3C74
39592800
BDD5F372
3D566F0C
3DAC63AE
BDF99B9D
BCB9F744
BD1E958A
BE018126
BD34B9F6
3DD155DF
3DA818A3
BD9CCAEC
BCC5AC82
3CC15644
3B466080
3BDA4300
3DC96775
3CD87808
BCA84704
3BFB0580
3D0E05A0
3BA3A1E0
BDCF24E3
BE6919F7
BDD3EF78
BDB0EC69
3DACCDEC
3DB748EE
3CE79C13
3DD03748
3CADECF9
3C83FAAE
3DBD383E
BE40E1B5
3E33866A
BE2E12B9
BDA07807
3DDA72EE
3DA48B40
3DEBBD38
3D866239
3DA8D664
BCA00209
3B592640
3CA458E0
BDA124EE
3D15F68C
BD92A105
BD9C9546
3DC96844
3D82B1C4
3CC9CFC0
3D9A30A2
3C64A570
3E0CCA6F
BDB15C8B
BCF1C424
3DBF4982
BDDF5D36
3D05783E
3E3A2AFB
BCF4DB7E
3C658808
3DE11CC6
3D23DDE4
3DE87C5C
BCD3E652
BBF796C0
3B3324AB
BD4827FE
3D378038
3D64C96C
BDB6DAED
3D06E88C
3DC9FA5E
BE0A7852
3C700229
BE0B235A
BD29605A
3DBDED68
BD51500E
3DD5E47F
3DE84A93
BE152272
BDD960EC
BDF0068A
3DCD94FA
3DF79084
BD3CB66F
3C2794F0
3D31FAFA
BDE5175A
BD96DCD2
BE0758DE
BE0AC09F
BD02037F
BD04E4D2
3B188180
BD1CA490
BD3612CC
BDCAFCD3
3D783234
BD5C2F47
3D4F2225
BD82EF5D
3B1EB9D4
BE356E36
3D1B8E93
3DA4A7CF
3E3BFD95
3D2201A2
BDFE4687
378CDF00
3DE7D8B8
BD38A51C
BE058BAA
BD5AB072
BDEDC887
BD08B94E
BE136BC5
3D8CD13C
BE04C622
3DA60C84
3DED7394
BD5A2445
BD7C7F96
3C56B4F3
BD90FECE
BD1FD42E
3CF6F880
BDF9ADFF
3D2CFFFA
3DBE697D
3D1C078B
3D0A5790
BD790E26
BC524D6F
3CC3F628
BDCD1274
BD9D11A6
3E921C84
BD1680BE
BDA7C706
3CAB7AC4
BE028C9C
3D8E52D6
BDC32531
BDD72068
3E6675AD
BDC6EF6E
BC76045B
3EA5288A
BDD98EC0
3D820AC4
3CD6A9B9
BE059CC3
3E0850FB
3C20A2BE
BD366419
BBBAF9C0
BCB826ED
BDB4CCA4
3E3C031D
3BF12D40
3D4CE8D2
BDB1658A
B9EA8200
BDB8D88E
3DCB9F51
3D41B680
3E022D48
BDA2E07A
BDB10608
BDB78216
3E3CD8EB
BDF8A8BC
3DB3CDF6
3CEDAC9D
BE5B55DA
BD0D2FA7
3DC17DBC
3E35EE7F
BD96FB38
BDA51795
3D16D036
3DEEA4B4
3D98479D
BDAACD21
3E11BCB9
BDC88DAE
3DBAE250
3E14803E
BD4A753D
BDCCE661
3CCD87C8
3CDBEF28
3D160733
3DB6E0FA
3E4DA865
3CA5CEF9
3D7ED6A8
3E91DB0E
3C96DA91
BE761D69
3E303784
3E1B4F2F
3E040B43
BBC518C0
3DF11442
3DD76E70
3BC85DC2
3DF31918
3E67BD37
BDFA8124
3E0274C6
3CCF485D
BD2DA7AC
3DBAFBB6
BE027619
BD1200BC
3C255236
BDAC9BCB
3E738681
3E08813E
BCA9841C
3DE0A505
3CBF82B1
BC7771D6
3DED8DAE
3E20D760
BDF6B4F3
BCE2D5D8
3D2526F3
BE0A79CD
3E56CD2A
BD6CF5CA
3D83A5DB
BCE42DBC
BD8698DB
BDE38E7F
3DE91CAD
BDC41531
BDBF5F91
BD7A2B46
BDD9BB4E
3DE74904
3E44EE6D
BB0B63F7
3CF98598
BE06F542
BDA5A7F5
BD89C6DF
3E09B09A
3DD726CF
BE0868CA
BE065B52
3E219151
3DA594C4
BDC712B4
BDCB1645
3D57A738
BD0CD076
3DB972B8
3D33A298
3DB71BA2
BC9FB9BC
3E094018
3DEE0AA8
3E06C478
BD7386C8
3DC699C0
3D5C1E50
3D90314E
3DA62F38
BDAC9D00
BC64C080
3D13E770
3DE0FA4C
3D790CA4
3DB4C35A
BDCBB7C4
3DA9E67C
3D894996
3D71F9D4
BD7F9F28
3CCF4C30
3CC175D0
BD9972FD
BC6C7B48
3CB80FA0
BDCF8A70
3E05E132
BD9A300C
3DAE9774
BD0AD634
BD151AC6
BE038907
3DF54C78
BD111585
B813A000
BDF36CDE
BC2C57EC
BC273310
BE038DE0
BD947648
BDA76CC0
3DAAE6A4
BA248800
BC8EA48C
BD9B58A4
BC197B50
BDF181C9
3C8C9D08
BB818E20
BE00F6E3
BDFF4ADB
BD6BD6FD
3C100A30
3D84A4C1
BD961C2B
3D2DA810
BE1F4ED3
BDC48B82
BD178B06
3E3A2991
3DC2958B
BD3CCBF5
3D9AD706
3D5D05FE
3E04270E
BD80E471
3C8C9018
3E63B24E
3D5DB9C0
BD16C9C8
3DB59476
3DC4ED20
3C7A92F0
BD06A1A6
3C8C49C0
3E8147D4
BDF069EA
3DC9E38D
3ABEAEB1
BDB8409E
3B69B3CA
3C9F2955
3D741861
BE206255
BD01C7EC
BDFA0DDB
3D6C4AD4
3D2F0CDB
BDB110E6
3E0080D8
3DB1A5BE
BCCF021B
BE050740
3E095408
BD89B78C
BC7645CF
3D8D5CF4
3D76D204
BD976D86
3D8C83C4
BDAA7D32
3D56495F
3D7A28D2
3DC77C42
BDCD350F
3DBA80A6
3DDEDF9D
3DE09A56
3D6A246A
3DAC5145
BDFA4CCD
3D246B2F
3DB014F6
3DE23752
3E076916
BD80DE56
BADD2480
BCA3A168
BD23DBFD
BDEC189C
3D9E92EC
BDF67A89
3CCCB3B8
3CFDD838
BDC15FAE
3E17C3EE
BE3B358E
BD04153C
3DB1F348
BE283F5F
3DD569A6
BDAA1919
3E2175A9
3D9F564D
BE054A22
BE4E2723
3D7042CC
3D3A2AF8
3E033406
BDF97BEC
BD338278
BD98019A
3DF066E6
3D9B7E5F
BC10A1F0
3D9830CE
BDAA60F6
3D8CC50F
3C3F2A40
3C3C5450
BDEDB328
BE08A703
3DE8A705
BBDC1748
3E15AB8E
3D3DFA72
3D9B45D2
BDB42751
3C599E60
3C85385D
3D2349AC
BB22B64F
BD1C2FA2
3ECADFDE
3B1B8C80
3D6F6FA8
3EA70059
3C5F24D0
3DE25FC4
BDA82C7D
3D39AD78
3E95D4EF
3DB58F6E
BDFAB453
3DF6DDE9
BC10C140
BDE2D95E
BAEA9DF8
BC893953
BDD49DF8
BE04D583
BE01FFAC
3DAC9CDE
3E5E5BD8
3D92A422
3D267BDE
BDCD523E
3C44640D
3D910B22
BE0B180E
3D61473B
3D8192F0
BDBF00AA
3DF144F8
BD584512
BB797ED2
BDEEE0AC
3C1E8B78
3C20B713
BD9F02B2
BD4D1793
BD5D7AA8
BE299204
3C19F59D
BCA6360F
BD21F1DB
3C41DF20
3D38C5CD
3D5EC294
3D35E8EB
BDC22979
3DDE979B
BB8E3DA0
BDBCB4C5
3E150B12
BD52E88A
BD7FD878
BDAEA7B6
BDDA0F24
3EB00A4B
BD101604
BD5F6B6E
3D22584E
BDD6CB68
3DC2FDCD
BE0B133B
3BC929C8
BD977A41
BDC8FE90
3D0FF9A9
BDBDB5BF
3DFEC3A8
BE017AD0
3E2105CD
BDA5F5FE
3E61D02E
BC2E0EB0
3D95F922
BCC05D66
BD80F1E1
3DEA1AF0
3B773500
BDF4737B
3E4C9391
3C2A8590
3CB43329
BDE009A8
BDD9FA8B
BD98AD30
3AA1B819
BC7EF166
BD1F2F2C
3DB822F0
3D94C251
3A83B700
3DA8DF53
BD8701F6
3DD26223
BCFD7420
3D291302
390A1800
BD438D8C
BD5BA5DA
BB3926B4
BDA3EA88
3D9E3946
BC10D150
BD926E98
3DECDAC4
3DE9E260
BC7C1C19
BD6434FA
BD2F6BD2
3CF81118
3D155208
3DFE27F9
3E221C8C
BC1BE17F
3DD1D662
3A944851
3D27B008
BE057594
BCE75920
BDA425A5
BC11AC80
BBE7AC60
BDAFEE20
BDC12104
BD69DDDA
3CF3E7E0
3DA7825E
3CCC14C0
BDF462B6
3B6DADC0
BCE37EF0
3DCA29DC
3DD89BA2
3DBB54A4
3E0A0184
BD5FE6EA
BD30D006
3C95B318
3D380054
3C9802E8
BC9B05D0
BC9112B0
BCBFC30C
BD23E551
BDE9131B
3E068682
BDA85FF0
BB8F4140
BDBD561D
BC90FC70
BDC9DF5F
3E021C19
BD54FF24
3DF889F0
3D5306EC
BE006AF2
BC9CBC14
3D1FDD35
BE058F5F
BDB4B44D
3E0592D1
3DFA7E6D
BDCCE6E0
BD1FA80C
BC38DF88
BCD85143
3DE45E92
BD735272
BDE35886
BDD2FF56
BE91B16B
BDD1E18D
BD22BEF6
BDEA46C6
3CD1EF50
3E3F7F0E
BD1FA2D0
BC9549CB
BDDC1273
BBD47200
3DF2DF93
3BE476AD
3D8B06FF
3DA2C877
BE1821DE
BDA33742
BD3B21C2
3E8BA6E0
3CE2F120
3E5BF115
BDB5B39C
3E1371AA
3D1563C8
BD3601DA
BCEEA33C
BE0AA677
3D32D0D0
3AF6A000
BD87E731
3D558D4F
BDEB5CB8
3D0749C8
3DC692E7
3DD69CDA
BDE92C7B
3D9EBD23
3D551FFA
3DCD31F4
3E2CF669
BCAB227C
BE057E49
3D19FA49
BDE6E9BA
BD21B161
3DAF5AAE
3C8389F9
3D90400C
3DF592BC
BD3DEFDC
3DD0718B
3DE836B8
BD504F32
BCFAF9FC
3DC92564
BDAF3D2A
BBF61CDD
BD82D7C9
BC8AACF0
BDC5163C
3CC3DD52
3D847244
3DDFC380
3D5FAEA8
BD8B353D
BD84387F
3DCDA37F
BDBD79A6
3D68E645
BDDDAAB8
BD226257
BCD24FDC
BD15E174
BE2C0183
BDF82B70
BE00B201
BCF2A1B0
BDA7B90E
3DD0C79B
BBFC4220
389088D6
BDF523A0
3D2FCB50
BD3629E4
3DE3E56E
BCD9F8A1
BDCBB6CF
3D3E71B2
3D76BF44
3D937A96
BD473CE9
BDDECD16
3D878C25
3D3F4688
BD08080B
3D448AB4
3CEA1198
3D0AB279
BE0F7492
BD9E6E24
BCAA17E8
BDAF5CC0
3C810B13
3D56EA78
3E1533D1
3CED7FF4
BDA7BFA4
3D0D04A5
3E41CA7C
3C8FEFF0
BDE4BB7F
BD18CDA2
BC418AFC
3D4FCA1C
3C2495F4
BDCAAA40
BC3624D9
BDBF2A08
3E39ECDC
BE058919
3DA66190
3D7A37C2
3DC2640F
3BC78360
3DABD062
3D1F3344
BDB276A9
BDF93123
3D841F15
3EAAE872
BD04B6B2
3E2025B9
3E13E857
BEA13761
BD2A81D2
3E2A2BC6
BCD2FFB1
3DB0BA5A
BE19E4F0
3D757C6C
3E7293B7
3D39E40C
3DB1D8C5
BE002AD0
BCF8B180
BE689FB3
3DAD7FC3
3944B400
3D134530
3DC67B1C
3D7631E7
3E06F670
3E2134A6
BE1705E4
BCF57EC4
3AAC50C7
3E6A2924
BDA54CF7
BDA5CB8F
3D41CAF1
3D2CADFF
3DE1EEB2
3E17C939
3D110A6C
3CD4A17D
BD6D5668
3E889D10
BCF97708
BDA4F7A3
BCAF2780
3C5C39FA
3C133B40
3DE3E5D8
3D96B0EA
BE00499D
3D5AFEE8
3E7FE876
3E7811A2
3D4D69C0
3D2971D7
3DC28CA6
3BB2F96A
3DC96925
3E54DD65
3D6FA677
BD164296
BC83D219
BD95335B
3E219D15
BD05E606
3E80BF57
3C026E80
BDF8FAFA
BDE17D8B
BC33CD82
3D884E72
BE08078C
3C87A770
BA9F67C4
BD98EE06
3E3FF109
3E204695
3D8A8D1C
3E3CBB9D
3E7664DC
3D356E4D
BD29680B
3DB44B43
3DCCCD2E
BD5B404A
3DFEDE30
BDE909F0
3D124B00
BDD214E6
BD89285F
3CBD0E50
3D72B298
BD9C1FBD
BDDB8C5C
3CC92C78
BD2C1C2A
BDAA3352
3C990B05
3DDA6798
3E292732
3D6447F7
BDE4FF44
BD99BCA9
3E5AFCFA
3DFAB625
BD9A27EB
3ADBB394
BDC85B8A
BD654E4C
3D5A0003
3DBB5FF4
3E03704F
BE007DE2
BDF65C3D
BD281BAA
BDE2F8B0
BDCB71B8
3D5FC3CC
BD582734
3DC92834
BDFF1370
3CFF1698
3A744900
BDA11E92
3D88077E
3E0684F6
BDDF5063
BDB9C747
BDC089E0
BDCA5586
3DEA32FC
BC662270
3D6C7C68
3DEFA838
3D0AB930
BB1FE980
3DEADEB0
BDD2BBB1
3CE34570
BDEE15A2
3D1000B8
3D8AD354
3DDD655E
3DCE09CC
3D1B0370
3C166193
3D313AAC
3CA89E88
BD84EB7F
BD83B4B8
3D3B6C93
3D87E686
3D692FD9
3E03BBDA
3DEE6CB1
BD5FDE9C
BD977FE1
3E0D5DAB
BD36AC9A
BD96B548
3DE87EF6
3E0C0C4B
BC8853C8
BDD5DEFF
BE36096A
3DDC0122
3DEC1400
BC871BE4
BE00E3BE
3E5997AC
BD179042
3E61EEE9
3E22001D
BD742254
BE574D06
3E0838EA
BDDAA356
3DC82716
BDAA0D3E
3D4CCBDD
3DFCFE3C
3DC0DCE2
BDA175CC
BE2511EE
BE08F58C
3E89E4B3
3E075F36
BD22C934
BCBAC925
3D8571FC
BDB31DF9
BD30FBAC
3D30B19C
3D951830
3DE07400
BDAE2B58
3DEE8A1E
3D90B78C
3DB31921
3E05C6CF
3C47926A
BDD48C22
3E1FA057
3D5D1E71
BDC5217F
3D8B9D5A
3D9EBEC6
BD68D13D
BC8F4734
3B64FB49
3E009090
BDE95AB8
BDCE91BE
BBBB167C
BE06065C
BE015F32
3DDFBC98
3B983C86
3DC13EF4
BD7364AD
BDC8FCA8
3DC1C63C
BDA199CE
BDC7F795
3C8A83E8
3E0159EA
BD8F73BA
3DB94A48
3D924888
BD9EC0B7
3E02DB0A
3D37D318
BD4B5042
BC21E7D5
3C614290
BC700438
3CBAD123
BDDAB6AD
3CF99600
3C112410
3D1EBD84
BDC6AFE1
3CB63128
BD689840
3C978931
3CA5EFF0
3D8D91C7
BCBFA7F9
BC153506
BDD8358D
3E1E596B
BD6C554E
3D1CCE70
3DAA12BD
3DDDFA3A
3DCBF002
BE0497CC
3CD1E565
BD349528
3D364E88
BE132623
BDE8E6F9
3A645D00
BDD873BF
BDB8947F
BE38F29A
3DC66482
BDB76B35
3DDCB794
BD80CBE7
BE08E023
3E36F488
3D6844F1
3DFA8F16
3D8CB748
3DEA0719
3DEE9464
3DB09022
BDB1C3BA
3D8B17D0
BD99BA15
3E824C12
BD5962A4
BD7260C6
3DF56256
BD5AE85A
3DC38630
3CC310C8
BD87E14F
3D262E6D
BC238A20
BD898D56
3E0571EF
3D88068A
3E8EB93B
3E70EC91
BE5DE7C2
3B0FBA77
3DE4FF5A
BDDC2587
BCD33E10
3C526190
3D60EB58
3D92EDBC
BDE2F5A9
3E3F5939
BD7F083A
3CB5FAA8
3D65FC54
3DA999B0
3DA296F0
BD24D020
3B05D200
BDD6B833
3CB286A8
3CCC135B
BC60B75E
3E0119C6
BD26F6D7
3E1634CE
BE305BA6
BCF99F70
BD0641EC
3D85D81A
BDE48556
3D9A32C4
BDBA3E74
3DE82FA7
BDBA2763
3E8D8BDD
BD80D29F
BD5A4D50
3DF7431F
3D5C46AE
3E0AF41C
3C3EA170
3C2F5CA0
BD58CA04
3D82EBE0
BE1CE612
3D9C50FB
BD9AE136
BCA9D777
3E85D8F2
BD7CA686
BDF18663
3DA28AE5
3DDACC2C
BD5760F6
3D93CE5E
3D47B678
3DE18065
BDF4BE5C
3E84A78B
BBDDACC0
3DB575EA
3E1C9877
BD9FDDAF
3DF1F8DC
3D92836C
BDD0528C
BD172F17
BDC14D7F
3D4346D6
3E8BED96
BDE36010
3D2F5542
3B3491DC
BDB4B86D
BDDC5D74
BD0F38E5
BD77E0F2
3DFDBD3C
BD4D5170
BD2F4BFC
3E419027
3DD3FCAC
3E61EAAF
BD83349D
3D51C028
3DC7B407
BDE70977
3DC1B1BC
BD657D36
BDB7870E
3E264EA1
BD20128A
BDD328A9
3E272924
BDB68C15
3D980CF1
3E5D3F95
BE82F7CE
BDC4FAE7
BD28B15D
BD9F2467
BCF51114
BD8AF1E0
3CE37720
3CC0261E
BCB5C890
BC2AFF60
3D83EFF2
3CACB088
3D39D224
3D9E2C78
3E0B3DD6
3E03074A
3D815412
BDF9B112
3E0A9102
BDB02556
BE01730E
3DC79080
BDDCC9E0
BDEAFBBA
3C8E5BE8
3D81547E
3DF8E9C4
3DD13692
BD5935E8
BCE6A7F4
3DA3A86A
3E00C460
3CCC1ED8
BDD8503A
BDE81281
BE099FB4
BCD60D34
BDED3AEF
BDEFA57F
BC67C940
BCF56CF0
3D57C21F
3E08530E
BD0824FA
3D6DFCC4
BD8395EE
BDD360DE
3B04EDAC
3DB3EAAA
3C8F606B
3D8869D5
3DDC8396
BD9D13A4
3DD295F5
BCE41630
BDF97DC9
BB840DA0
3E161894
BDE7D95A
BE065B82
BD011FA3
3CB635B0
3DCEA5E4
BDCACFEA
3D279CE8
BDB97C74
BDFB5916
BC9AB92E
3D87ACBA
3E08814C
BE9552A7
BE3B27B2
BE60D49F
3E10B4A8
BC2E461D
BDF4A970
BDB8A9F6
BE05568D
3D6BC520
BE0FD018
BD33C766
3ED6FE4B
3D9B955E
BD116B84
3EA3D29E
BD28711F
BD439B0E
3D98175A
3D9B2922
3E008FB1
3DFB40D4
BD9E53B7
3DF92197
3D63DD84
3DE2BA9E
3E0A1143
3E2B2B60
BDACAB13
BDBE5167
BE1365BB
3D16E4CC
3D2F5A93
BD6AD52E
3DA49D87
3E085058
3E19DDFF
BC8B6A18
3D726654
BDAAC222
3D1B7F43
3C8CE3C8
3D449478
BD950672
BB279D2C
3DBB5616
3DCDFC92
BD1EBA20
3DDD5326
BDAE89A2
BCFF591B
BD844039
BDF3D622
BDC4D636
3D94435F
BDA2FD4A
BDD50D6F
3D81BFC4
3D8B1470
BCD63D80
3D4A060E
BD1D1BAC
BC318BC0
3DF7B23E
3DCF006B
3D727A88
BDD4E6D1
3DCC4B50
BD30191A
BD98CF64
BCB39991
BC69FAE6
BDB8C872
3E235FFC
BDC2B8C7
3E2E44DB
3DA886F9
3D5340A1
BD932259
BCB0A2BC
BE0E6D04
BDA344F4
3D68C16A
BD206E6E
3E044E4D
BD8B3997
BDBD0786
3D67029D
3CA2BAE2
BDEBE90A
BA8F0080
BDBF405A
BDEF99DE
BDC72DE4
3D96E60B
3DF11E6B
BDF2C88E
3E1F6E1F
3DEF6576
BCF97590
BDFA93FB
3D1152C6
3D1ECA97
3DA35182
BE1347DB
BBA9B3E0
BCF17124
3D128834
3ED15DFA
BD96FDE2
3D76BE38
3F0196DB
BDF8BB31
3CC9B3C8
BD9B486E
3C761EA0
3EFAC8BE
BD05BBF0
BE6A91FD
3D58C8D9
3DC13340
3DAA7E41
BD54DE29
BDCA9638
BE270F5E
BE554690
BE031553
BCE2C7E8
BD82A3BD
BC2473A0
3E0B3085
3B43F840
3E37193B
BD8A1836
3DFA2480
3D9A3B51
BE0BF5A1
BD44606A
BE09204D
3DFEFFD8
BDDE5423
3D478F00
BD99533D
3CFF442D
BCB221E0
BDB9CE45
BD2BE372
BDF9C78F
3E1233FB
BD452D28
3D4F560B
3D014D90
3D00DDB9
3D3A79F8
3CC6CB7D
3D8460A0
3EC94360
3D55429C
BDBB6CF7
3ED58A99
3CF343CD
BE035E11
3DF4CE4C
BD51849E
3EE1FD8B
BD91EF1C
BE4E9095
3E7AE19F
3D8D0264
3E952432
BC25B12C
3D48E75C
BE2F2349
BE8AA232
BAFFDB4B
3CB95048
BDA11347
BB0C98C0
3E3C2917
3D72EA40
3ED514EB
BD82333F
3D79A424
3DA30186
3DFEC9C8
3DFD50BC
3D6EA78C
3C6058F0
3D3885BD
3DC6A5E4
BE0431EB
3E6DC189
BD660DDE
3E12A8E7
3DBA82F6
3C1FA32F
BE0A46E7
BDB09869
3D7EA4C1
3D304300
BDC04E39
BE0246CF
3CCB0130
3D820DC6
3E848B88
BD725E0E
3D20CB60
3E20D4F5
3D3A1B22
3D7723D8
3BEDCE40
3D8DB10C
BDCCAE56
BDB65ADA
BE5C9ABB
3E0EFE47
3C9E86C0
3D2EE7E9
3D2C42E5
BE31BA53
BE47D24B
BD9C08B7
BD9B3B18
BDC0164F
3D61AB03
BDE62B13
BDD717C7
3D3BAFA0
3D32F350
BDB1576C
BCC60E78
3DA7822E
BD3717F0
BDF8B193
BD9BC39E
3DB01988
3C95DEA0
3D04D404
3D3CB6AC
BDAB620E
BDD8D65B
BDF5B05A
BD1F1824
BD839ADD
BDC0F34E
BD6DA6C2
3DF10C70
BDB04A04
3C930590
3D328624
3D38D9B0
BDF983B0
3C8C4868
3DC182CA
3CB91398
3DD3FBF7
BDC4D139
BAC6EC80
BDB8783E
3D20F1EC
BDA189CF
BCCB0420
BC2EE9E0
3DD3F29A
3E068320
BD10B734
BC10A9C3
BDC96659
3CDDC850
3D93D32E
BD9E1450
3DBA194E
BCBD785B
BD21CD0C
BDC1C843
BD3F5FE8
BE13B8C5
3DA9E74E
BD22EDA4
BE013FF8
BCD70C24
3E02F15A
BD41EB18
BDBB8587
3E06B6DA
BD2E8686
BD146C49
BDF448C5
3CD40350
BC92E03B
3D6A78E9
BCBF510C
3D176D74
3DCF15C1
BC0347AC
3D382248
3E77DEAE
BDD89572
3E3E1443
BB1F9740
3CCD0E95
3D933E32
3D844D0C
3D322189
3D41CAB6
BDAA6756
BDAD4FAE
3D3730C8
BD33E771
BCCDD5B4
BDC41EA9
3BDEFE3C
BD5EADD2
3DBA3202
3E3A58FA
BE0A653D
BDE447EA
BD641B57
3DEA3EFA
BC82F120
3BC8481D
3DD5E4E2
BCFCCA57
BD875942
BD66C4A7
3C90B0F8
3DFDA93C
3D74DF2D
3CF57321
BE033DFE
BDBE51F8
3D7561D0
BDAAF8AC
BC7D1040
3D558BE8
3E08BB33
3DE9ABF0
BE0843C4
BD68619F
BDDBEE9C
3D708960
3CC3D2CD
BD1E6D47
BCF97028
3D434046
3CCF36F8
B9F02CED
3DC67ECA
BDF3530F
3D995BAC
3D21994C
BE35F838
3D85962A
BDE28438
3D6D4064
3DBE4F48
3D89BEC1
BD9AA664
3D83796D
3CDAA4FE
3CE87C20
3D95B93F
3E24D934
3E0961B9
BD7B9133
BDEC1E5F
BE0BCA8D
BC5D60A0
3E1DF632
BDFF560C
BBDC947C
BDD0F093
3DA7BE97
3CC38BF0
3E06228C
BE0D8B25
BC2CDFC0
3DA27844
BDE41A6D
3D5299E4
BC95071F
BD85AE18
BCBD5A65
3E1E4589
BC859544
3DA5269B
BDECA10A
BD1ECD15
3C29F4E0
3D6D8909
BD91ADEF
3D438EB4
3E51AC72
3DC89C80
BD93F585
3D20FEB4
3EA08AA0
BBC5CA80
3DBCD346
3E61B59F
BD599782
3DBA23C8
BD1A53F6
3DBBCC64
3E479FA4
BCE49C70
BE1247D1
3DAF614B
BDE83E09
3E8E6641
3DE57E33
BE9CF31A
3D1186DF
3DA92CF4
BDBE1C67
3D4B650C
3E4F5ECE
3DC9A144
3E0582BD
3D3CB748
3DCAC28D
BDA44BC0
BC9982CC
BD980DC3
BDAD3507
BD62638A
3D97B3BA
3DE5061E
3D43C595
3DD22842
3D898576
BD934916
BE0560C4
BD431CA3
3E30E70F
BD9FD2EB
BD8C734B
BD0EE5F4
BD8DD4D4
BD633536
3DE325A9
BDE792A8
BCBBD0ED
3DC2A16E
3E256F54
BDCCDFF3
3CA90228
3CF8D333
3DAE8F21
BD982604
BD84F92C
3D3A04CC
BDE12F74
BC91D064
BE26D0B0
3E5461C4
BE0994C1
3E2EBB01
BD56DAB7
BE225557
BD76B0E7
3D052F9A
3C8BA9EB
3CF926C0
BD6BF7C4
3D75402C
BDF937B7
BD13A162
3E13F0D8
BD93A3E6
BDA805E8
3E4BAEFC
BC26DE79
BDD3F78C
3C6A6320
3D6E42EC
3E4E69CF
BC60DB28
BCB42BC0
3E8EF332
BD83A45A
3DEFB8F8
3D8C5F95
BE851A5D
BCB9F226
BD6C7999
BD46E206
BDE424F0
3DB42837
BDDF7B08
BD54DA0E
3CB47118
3CA3F2BC
3DEB7B40
BD98AD74
BCE656EA
BDD20692
BD2D633E
3DD18738
3D6EDC64
3E2F27EB
BDAB60F7
BD35E8C6
3DF0E0D2
3C4D7090
3E4491A1
3E0AAE22
BCC5472B
BCB8D452
3D965EE5
3DE2AEC9
3DBF8D88
3E053BAA
BDB0B480
BDCF8370
BC592110
BD92CC5D
3DF09C24
3D91D3C6
BE0AA384
3D57CE18
BDB8AD25
3D7D5200
BC99B290
BD9413A0
BE0A4745
BCAA0898
BC970AB0
3CD790D8
BDD1802D
BD6C2DE2
3D901D8A
3DA8B1B2
BBE24F00
3CE0EB48
BCDA0E70
3DCCFE62
3DEBDBC4
3C5C68B0
BCCA57F8
BC6F5C98
BDF06E15
3E008A24
BDFF677D
BD4638EC
3D00D254
BC945524
3CD04C80
3D7D2650
BDE4173F
3DAF51B2
BE04128C
BE0137EB
3D1C2280
3C970AB5
BD55A991
BDA02DCB
3D707485
3DDFF298
3C4C2C00
3DAD5B25
BD15D834
3D9B75FC
BD4F3C2C
3D4CFCDC
3DD8406E
BDA81414
BEC6FB43
3D0EF6B8
3DDEBCA2
3CFD1510
3D28DCBC
3D8759D8
BDDF2CF4
BDAB3464
3DD02105
BD452A76
BD3A8337
3E1EC867
3E084511
3DDBCE21
3DAAD3A6
3DFF12BE
3D5DC2F8
3E6ED90C
BD45D8F4
3DA0AD8D
3B4D4980
BE5476EF
BDA3D04A
BDEE165E
3DF4278F
BE09CEA2
BDE6B0FA
BC9736C8
3DE7B094
3CF140CE
BE067528
BEBE775D
3E503690
3E07B36C
3DBE1902
3CAD919A
BEF62FDD
BDCE14FF
BD5C6999
3DF583C0
BDF9E6B4
3D8A841C
3DF2E920
BE54DED1
BE048932
3D63C541
BD986782
BDAFD62C
BD343F8B
3DACD6E1
3C2FF6F0
3DD80950
3CC0D2E0
3D02673E
BD842B18
3DC294DC
BDD08234
BC13FE40
3D215E5F
BD2DB7D5
BDF1B875
3DE26C7E
3DDF7B72
3E057DC5
3C042AF0
BDB38216
BDD5E184
3DCD5167
3E08A4FC
3DC8C1C0
BD43E042
3DD873F4
3DFF69D6
BCA2521D
BDCB8114
BDBCB6A0
BCDA14A4
BD8D7CCA
BDE85F1E
BDB5BF47
3D9D712A
BD7AD892
3DA14207
3DA8A5C6
BE1EF5A8
3DB3A810
BD4EF027
BCDE9771
BD83FF60
BE0EF9A7
BD59CD9A
BE2242E7
3CEB6B50
3D77C660
BD88ABC8
BE021197
3D83E6F1
BD5F9A82
BDC3FCE6
BC5D48A8
BDAE245C
3C8FC35F
3C852C20
BE4EDB4E
3E3816BC
BD216CAA
3D5493C7
3E1F53D3
BE3178F8
BD8CD8E9
BDA91B10
BD425EB5
3DA9661C
BB8B2CA4
3DED70D8
BA9B9CBC
3D4BDFDC
BB95DD9A
3DBD15AE
3DEF98C0
3E412108
BAA478AF
BDDC3F9E
BE0AD766
BD9CA330
3E1CDFD0
BDD450CD
BF181FCB
3DCF925D
BDC9E927
3D8B7E94
3E5C0428
BEFBDE1F
BD2E1BD6
3DF9AE9E
BCA541E5
BD8B8318
3E7A113B
BDA10482
BCE1112A
3DAE77E0
3D08A14E
3C5FC610
3ACFE200
3E173EF6
3D58E0DD
3C0B0370
3E030F4C
BD700182
3E1209BB
BDB34AF3
3CA1547A
3E8A895C
BD308EA2
3DBED248
3DD66D65
BE552C37
BD3162B8
3E2C43E7
3D0275FC
3CD69878
3E17E0C2
3D934788
BD38B7F2
3DF7641C
BE3ADA8E
BDF1796B
BD9059C5
3DA66184
3D0B68FB
3D08C6C0
BD2C5F0C
BD9BCC1C
BCEB824C
BDD95C1C
BEB2ADD7
3E23741B
3D43BED0
BE168D81
3E17B885
BEA90A4B
BE07A309
3E5B9274
3DF1A8B7
BD9570BF
3E11713C
BDF5BCF0
3CB929BA
BDCBB245
BDA470EB
3D853236
BD8901AF
3DF83CD8
BCC02DE0
3D8FDDF4
BDEEB2D0
BD238832
3E128C0D
3C25BD40
BE895CBD
3DACAB2D
3DFB0190
3E26978F
3D81B0AF
BD2898CE
3DCFB7B9
3C424F8F
BD77E4A9
BC03E540
3D084659
BDA66C2A
BDF45A90
BD92098B
BD52E1AE
3BB5C240
BDCF7ACA
BD5C5CDE
3DB9E98F
BCD9A06C
BDD45386
3D2F62C8
3C200A17
3D2DA4D4
BE33B594
3DF66493
BBD839E0
BCB331B8
3B6646D7
BC516C62
BD999A06
BDE0395E
3DC22ABD
3B430080
3E61C075
BD124A7C
BE1B1099
BCB74B94
3E00EC2E
BDFD922F
3D6282C4
3BFC6E20
3D9F0CD4
3DAEABC6
BDD787AD
3D81BB38
3DC41E3E
BDF5B138
3D5EF580
3D1052D0
3CE661C8
BDDEE840
BD80574C
BE037563
BD5F2D88
3D780814
3D4F4AF8
BD40660A
BD948BB8
3DDCDFC4
3D0AA818
3D0A395C
3C44B430
BDFA8DC8
3C18B000
3D804310
BD4435A6
BDEDE206
3D98135C
BDFD75F7
3E127DE2
BD4311AE
3DBFE552
3CF76DA0
BC3CC550
3DE05E85
BDEE0814
BD7B164C
BE0D1968
3DCB8DC9
BB9102E0
3DCDE0CA
3DFC8958
BCEA8D08
BB1FB456
BD68FA64
3D9065CF
BC3F3E60
3C1FB910
BD72C30F
3D83E8E4
BC474690
3CD5FAA0
3DC8C862
BE100F67
3DE39C5C
BE0BAB4F
3E512C87
BDA32D01
BD9933F5
BE3CB710
3DB82311
BD9A6455
BD3550C1
BDE4E00E
BD331B30
BD33F1B9
3D0612B0
3CD4722E
BC968DD8
3E87E5B8
3E009FAC
BD931111
3E91DDAB
3DFBE881
BDA246EC
BD50028C
3C1EE0F0
3E2DC153
3C03E040
BE155EC0
3DC42DBF
BD181D58
3DAB7E45
3D5CD7EA
BE47ADEC
BDF95BEF
3C35ABFB
BCC7C431
3DF9BA0C
3D410521
BD837D21
3D5FF21D
3DBE13A8
3E04B2C8
3DD90A4E
3DDD9138
BCE7A455
BD987708
BE017AC3
3DE5210C
3CE29628
BC9AD394
3D1D4490
BDC592F6
BDD9C20B
3D480E10
3B1D5267
BD5A76FD
BCE6722A
BDE600B6
BE12168A
3D9E0127
BCA5DE60
BC010C86
3D483164
BCF187EB
BD04D9E8
3E0BC2A2
3D4AEA3C
BDBCD35B
3DDF4E08
BD41BEC1
BD833819
BCC19BA8
BDD2EDCC
BE01E1C6
BDD6B92C
BDA63D8D
BD30C434
3DF76F74
3CA6D5BA
3CFE355C
3DB24904
B9DF25FA
3C503132
3CE110C7
BDC993BE
BE4E0F92
BE06E4F1
BCD8A686
3D874EE2
BE24A98A
BE019956
3CAFA0C8
3E110AC6
3DD0D0C6
BD76F4B8
BD22A132
BD34FFEA
BE3207F1
BDF1B37E
BE40E6E8
3CDD9975
3C1E1170
3D7A1B4F
BD41AD47
BE0D1FE1
BDE3714B
BE046BE9
BE0B61EA
BDDFA1F4
BE1A9E29
BDC14E17
BE15FCB7
BDBD0D6E
3ED76095
3D9E8A48
BDAC4666
3E9D8D9F
BDCD3A06
3DC42BC0
3DF39288
BCDD5AA4
3E8830A1
3DB7EF20
BE5726C6
3E6BD710
BD9C60D0
3E4C5E7E
BEADE989
3D45164A
BE18DB89
BEC7D34D
BDCFF86C
3D115F00
3DA6A01A
3DE47282
3ECEB37D
BDFDD45B
3CC1CFC5
3DF8E808
BD07F5EC
3D4811C4
3C24456A
BDF6332D
3DF0EC1C
3D89397A
BE05F8D2
BDD1D87A
BE6CA7BA
3E1B5F95
3DE22D9A
3D8F39B3
3D3AFF8A
BE5259B5
BDC71D7B
3E2B93F4
3C835F9A
3DB4F102
BDD90133
BD455504
3CD84689
3CDAD598
3EE8144E
BC5A88D8
BDEA47E5
3E1FF555
BD6E426A
3D2BF94C
3D4D0D50
BD5A4288
3E083734
BD893D04
BE1A51FF
3DD4B6E9
3C8D2AC0
3DC708C8
BC17DCC3
BDD78A82
BD4E7998
BE158E41
3DFAA8DF
BD82AD84
BCEA8748
3D2D77B8
3ED2BEB4
3C40B5D0
3E62B5CF
3DBEB89C
BDEBAE52
3E95CA00
3DA43D28
BD2BDD88
3C849458
BD2919D6
3E11D6D1
3C5CC1B0
BE3BE785
3E1B8A80
3E0261E2
3CBD731B
3BCA352B
BEBE5F0C
BD4027D2
3DD0ABC6
3DF8DF1B
BDF1EBC7
BD7DA160
BD9C0D30
BDC282E2
BD46002E
BE5F47F6
BCE9FDDC
3C72E200
3E342B99
BD62C538
3D6423A0
BDAAA886
BD9637A6
3D9D6AB2
3DCFC666
BE80C8F9
3E63DDAF
3CE947D8
BB436327
3D891E4F
BDF3110F
BE8BEA24
3DC42E3C
3D79B5CD
BC142590
BD1ED08C
3AA17880
BE8AB23B
BDB32F1E
3E07DF6E
BD068D68
BD76941A
BDEE8774
3DC7DC4C
3D5CF49C
BD34E866
BC99EF54
BDFAB371
3CBC1AB8
BDE5450B
3C94EEC8
BDBFD3E6
BDDB1724
BD8F8E76
BDC62778
BC56CB18
3D791A38
BE048BCE
BD4EA18C
BD5B63CE
BDC008F0
BDA75CA8
3D586054

