BCCBDBBD
BE1D5437
3E82EA5E
3CBA1E51
BE255B59
3F057A15
3E82CB46
BE731A50
BE291839
3E74C7D2
3E9F8B0D
3F0CEB4A
3E351B04
BE4B3DE3
3EFE36F9
BE821680
BE6FE853
3D85B543
3F16168C
3EB2AE90
BE867834
3E1D92AF
BEA7AA5F
3E598FF3
3F05D0DF
3DC7B8C9
3E512CB3
BE9ED535
3D288078
BD01428F
3ED16342
3C98E9B5
3EF1ECC4
3CD642BC
BE007D34
3EF3322F
3EDA6BFC
3EE28F26
BE55059D
BEA75D7F
3DE6D15F
3B19FDFB
3EA05F06
3C3D1316
3EB37CC1
BD9C2115
3EDC04A6
3ED179CE
3F10CF99
BDF1FE5F
3EA41C84
BE05364F
3CDBF8CA
3EC02BEA

